{
  "version": "1.0",
  "truncation": null,
  "padding": null,
  "added_tokens": [
    {
      "id": 0,
      "content": "<unk>",
      "single_word": false,
      "lstrip": false,
      "rstrip": false,
      "normalized": false,
      "special": true
    },
    {
      "id": 1,
      "content": "<pad>",
      "single_word": false,
      "lstrip": false,
      "rstrip": false,
      "normalized": false,
      "special": true
    }
  ],
  "normalizer": null,
  "pre_tokenizer": {
    "type": "ByteLevel",
    "add_prefix_space": true,
    "trim_offsets": true,
    "use_regex": true
  },
  "post_processor": null,
  "decoder": {
    "type": "ByteLevel",
    "add_prefix_space": true,
    "trim_offsets": true,
    "use_regex": true
  },
  "model": {
    "type": "BPE",
    "dropout": null,
    "unk_token": null,
    "continuing_subword_prefix": null,
    "end_of_word_suffix": null,
    "fuse_unk": false,
    "byte_fallback": false,
    "ignore_merges": false,
    "vocab": {
      "<unk>": 0,
      "<pad>": 1,
      "!": 2,
      "#": 3,
      "$": 4,
      "%": 5,
      "&": 6,
      "'": 7,
      "(": 8,
      ")": 9,
      "*": 10,
      "+": 11,
      ",": 12,
      "-": 13,
      ".": 14,
      "/": 15,
      "0": 16,
      "1": 17,
      "2": 18,
      "3": 19,
      "4": 20,
      "5": 21,
      "6": 22,
      "7": 23,
      "8": 24,
      "9": 25,
      ":": 26,
      ";": 27,
      "<": 28,
      "=": 29,
      ">": 30,
      "?": 31,
      "@": 32,
      "[": 33,
      "\\": 34,
      "]": 35,
      "^": 36,
      "_": 37,
      "`": 38,
      "a": 39,
      "b": 40,
      "c": 41,
      "d": 42,
      "e": 43,
      "f": 44,
      "g": 45,
      "h": 46,
      "i": 47,
      "j": 48,
      "k": 49,
      "l": 50,
      "m": 51,
      "n": 52,
      "o": 53,
      "p": 54,
      "q": 55,
      "r": 56,
      "s": 57,
      "t": 58,
      "u": 59,
      "v": 60,
      "w": 61,
      "x": 62,
      "y": 63,
      "z": 64,
      "{": 65,
      "|": 66,
      "}": 67,
      "~": 68,
      "Ċ": 69,
      "ē": 70,
      "Ĕ": 71,
      "Ę": 72,
      "ę": 73,
      "Ĝ": 74,
      "ĝ": 75,
      "Ġ": 76,
      "ġ": 77,
      "Ġt": 78,
      "he": 79,
      "Ġa": 80,
      "in": 81,
      "Ġ.": 82,
      "Ġs": 83,
      "Ġw": 84,
      "Ġ,": 85,
      "Ġthe": 86,
      "re": 87,
      "ou": 88,
      "Ġh": 89,
      "ed": 90,
      "Ġb": 91,
      "Ġo": 92,
      "Ġm": 93,
      "nd": 94,
      "Ġi": 95,
      "ing": 96,
      "Ġc": 97,
      "Ġf": 98,
      "er": 99,
      "Ġto": 100,
      "at": 101,
      "Ġ'": 102,
      "Ġhe": 103,
      "Ġd": 104,
      "Ġl": 105,
      "is": 106,
      "Ġn": 107,
      "as": 108,
      "en": 109,
      "Ġth": 110,
      "Ġand": 111,
      "ll": 112,
      "on": 113,
      "an": 114,
      "Ġp": 115,
      "or": 116,
      "it": 117,
      "ar": 118,
      "Ġg": 119,
      "es": 120,
      "Ġof": 121,
      "Ġin": 122,
      "Ġy": 123,
      "``": 124,
      "Ġ''": 125,
      "om": 126,
      "Ġha": 127,
      "ow": 128,
      "Ġbe": 129,
      "id": 130,
      "Ġyou": 131,
      "Ġe": 132,
      "Ġwas": 133,
      "le": 134,
      "ot": 135,
      "ld": 136,
      "Ġher": 137,
      "ac": 138,
      "gh": 139,
      "ve": 140,
      "st": 141,
      "Ġon": 142,
      "et": 143,
      "Ġst": 144,
      "im": 145,
      "ly": 146,
      "Ġit": 147,
      "ay": 148,
      "Ġhis": 149,
      "Ġthat": 150,
      "ic": 151,
      "Ġu": 152,
      "ut": 153,
      "Ġre": 154,
      "Ġr": 155,
      "se": 156,
      "ad": 157,
      "al": 158,
      "ver": 159,
      "Ġk": 160,
      "Ġme": 161,
      "out": 162,
      "Ġwh": 163,
      "oo": 164,
      "Ġ?": 165,
      "the": 166,
      "Ġas": 167,
      "Ġwe": 168,
      "ght": 169,
      "Ġmy": 170,
      "ould": 171,
      "ith": 172,
      "Ġshe": 173,
      "ir": 174,
      "Ġfor": 175,
      "ent": 176,
      "Ġwith": 177,
      "ke": 178,
      "'t": 179,
      "Ġhad": 180,
      "Ġdo": 181,
      "am": 182,
      "Ġan": 183,
      "Ġli": 184,
      "Ġat": 185,
      "ur": 186,
      "Ġsh": 187,
      "ion": 188,
      "all": 189,
      "Ġj": 190,
      "Ġhim": 191,
      "ee": 192,
      "Ġfr": 193,
      "Ġsa": 194,
      "ight": 195,
      "ked": 196,
      "ch": 197,
      "red": 198,
      "pp": 199,
      "ro": 200,
      "Ġnot": 201,
      "ack": 202,
      "ain": 203,
      "Ġbut": 204,
      "ill": 205,
      "th": 206,
      "Ġne": 207,
      "ant": 208,
      "she": 209,
      "ce": 210,
      "her": 211,
      "ter": 212,
      "il": 213,
      "and": 214,
      "ore": 215,
      "Ġkn": 216,
      "Ġout": 217,
      "Ġso": 218,
      "Ġup": 219,
      "Ġis": 220,
      "ust": 221,
      "ri": 222,
      "ome": 223,
      "rou": 224,
      "Ġhave": 225,
      "Ġsaid": 226,
      "ard": 227,
      "ec": 228,
      "un": 229,
      "one": 230,
      "king": 231,
      "Ġfrom": 232,
      "Ġab": 233,
      "ie": 234,
      "Ġgo": 235,
      "Ġdid": 236,
      "to": 237,
      "Ġwhat": 238,
      "Ġch": 239,
      "Ġle": 240,
      "ra": 241,
      "ind": 242,
      "Ġwhe": 243,
      "nt": 244,
      "ge": 245,
      "Ġcould": 246,
      "Ġthis": 247,
      "Ġloo": 248,
      "Ġsu": 249,
      "Ġall": 250,
      "Ġback": 251,
      "Ġno": 252,
      "Ġwere": 253,
      "Ġwould": 254,
      "Ġal": 255,
      "ess": 256,
      "ted": 257,
      "Ġv": 258,
      "el": 259,
      "own": 260,
      "us": 261,
      "Ġlike": 262,
      "lo": 263,
      "ood": 264,
      "Ġthey": 265,
      "qu": 266,
      "ab": 267,
      "ss": 268,
      "Ġsp": 269,
      "Ġone": 270,
      "hed": 271,
      "ell": 272,
      "au": 273,
      "Ġcon": 274,
      "Ġinto": 275,
      "ry": 276,
      "our": 277,
      "ide": 278,
      "if": 279,
      "ast": 280,
      "Ġwor": 281,
      "Ġknow": 282,
      "Ġag": 283,
      "ers": 284,
      "Ġabout": 285,
      "hing": 286,
      "ace": 287,
      "Ġex": 288,
      "ally": 289,
      "ck": 290,
      "ake": 291,
      "Ġro": 292,
      "Ġhand": 293,
      "Ġjust": 294,
      "Ġif": 295,
      "um": 296,
      "Ġsee": 297,
      "Ġthem": 298,
      "ul": 299,
      "way": 300,
      "Ġwant": 301,
      "ong": 302,
      "Ġover": 303,
      "Ġyour": 304,
      "Ġor": 305,
      "op": 306,
      "art": 307,
      "ate": 308,
      "very": 309,
      "Ġany": 310,
      "Ġbeen": 311,
      "est": 312,
      "we": 313,
      "ven": 314,
      "Ġey": 315,
      "Ġare": 316,
      "Ġtim": 317,
      "ap": 318,
      "Ġsm": 319,
      "lf": 320,
      "Ġde": 321,
      "Ġget": 322,
      "Ġthere": 323,
      "are": 324,
      "Ġdown": 325,
      "Ġlo": 326,
      "Ġwhen": 327,
      "Ġbl": 328,
      "Ġpl": 329,
      "ame": 330,
      "ist": 331,
      "ig": 332,
      "Ġtoo": 333,
      "Ġse": 334,
      "Ġco": 335,
      "urn": 336,
      "Ġbo": 337,
      "Ġmo": 338,
      "Ġagain": 339,
      "ous": 340,
      "Ġ!": 341,
      "Ġman": 342,
      "Ġsome": 343,
      "Ġthen": 344,
      "ice": 345,
      "round": 346,
      "ag": 347,
      "Ġoff": 348,
      "Ġcom": 349,
      "ation": 350,
      "ink": 351,
      "ive": 352,
      "Ġtime": 353,
      "Ġbr": 354,
      "Ġar": 355,
      "Ġwho": 356,
      "Ġthou": 357,
      "ew": 358,
      "Ġeyes": 359,
      "Ġpo": 360,
      "Ġby": 361,
      "ting": 362,
      "ick": 363,
      "Ġhead": 364,
      "Ġqu": 365,
      "ull": 366,
      "ine": 367,
      "Ġmore": 368,
      "Ġus": 369,
      "ak": 370,
      "ther": 371,
      "other": 372,
      "ound": 373,
      "pped": 374,
      "Ġcan": 375,
      "te": 376,
      "Ġcl": 377,
      "Ġac": 378,
      "Ġsl": 379,
      "Ġsc": 380,
      "self": 381,
      "Ġnow": 382,
      "Ġgr": 383,
      "led": 384,
      "ved": 385,
      "Ġtr": 386,
      "fore": 387,
      "ile": 388,
      "Ġway": 389,
      "you": 390,
      "wh": 391,
      "Ġtheir": 392,
      "Ġtw": 393,
      "ure": 394,
      "Ġen": 395,
      "Ġun": 396,
      "Ġthan": 397,
      "but": 398,
      "dd": 399,
      "Ġhow": 400,
      "ort": 401,
      "ass": 402,
      "reat": 403,
      "Ġaround": 404,
      "ear": 405,
      "ving": 406,
      "ire": 407,
      "Ġgoing": 408,
      "..": 409,
      "Ġbefore": 410,
      "Ġsay": 411,
      "nder": 412,
      "fe": 413,
      "Ġother": 414,
      "omet": 415,
      "Ġwill": 416,
      "Ġ...": 417,
      "ade": 418,
      "Ġpre": 419,
      "Ġpro": 420,
      "Ġhere": 421,
      "Ġeven": 422,
      "Ġ``": 423,
      "Ġthink": 424,
      "ep": 425,
      "rough": 426,
      "Ġlooked": 427,
      "Ġright": 428,
      "Ġim": 429,
      "Ġfl": 430,
      "Ġneed": 431,
      "Ġturn": 432,
      "tle": 433,
      "ff": 434,
      "Ġthrough": 435,
      "ip": 436,
      "em": 437,
      "ft": 438,
      "Ġevery": 439,
      "Ġthought": 440,
      "fter": 441,
      "Ġonly": 442,
      "ont": 443,
      "iss": 444,
      "ect": 445,
      "Ġthing": 446,
      "ward": 447,
      "be": 448,
      "ite": 449,
      "Ġbec": 450,
      "Ġsomet": 451,
      "Ġshould": 452,
      "ling": 453,
      "Ġlook": 454,
      "Ġaway": 455,
      "thing": 456,
      "Ġface": 457,
      "Ġgu": 458,
      "eep": 459,
      "Ġpr": 460,
      "Ġdoor": 461,
      "Ġmu": 462,
      "Ġgl": 463,
      "ave": 464,
      "ies": 465,
      "Ġstill": 466,
      "act": 467,
      "ity": 468,
      "ause": 469,
      "ang": 470,
      "dy": 471,
      "ol": 472,
      "Ġlong": 473,
      "Ġexp": 474,
      "Ġlet": 475,
      "iz": 476,
      "ach": 477,
      "ened": 478,
      "Ġlit": 479,
      "ared": 480,
      "Ġgot": 481,
      "Ġclo": 482,
      "able": 483,
      "Ġsomething": 484,
      "Ġfee": 485,
      "Ġwat": 486,
      "ble": 487,
      "Ġam": 488,
      "Ġgood": 489,
      "Ġnever": 490,
      "Ġop": 491,
      "Ġbet": 492,
      "wn": 493,
      "ich": 494,
      "ue": 495,
      "ct": 496,
      "ark": 497,
      "Ġche": 498,
      "ated": 499,
      "med": 500,
      "ance": 501,
      "ered": 502,
      "ough": 503,
      "they": 504,
      "Ġmade": 505,
      "ree": 506,
      "whe": 507,
      "no": 508,
      "Ġasked": 509,
      "Ġmuch": 510,
      "ious": 511,
      "age": 512,
      "Ġho": 513,
      "ment": 514,
      "Ġfo": 515,
      "ched": 516,
      "aking": 517,
      "Ġarm": 518,
      "Ġcar": 519,
      "Ġlittle": 520,
      "Ġtwo": 521,
      "ath": 522,
      "Ġwa": 523,
      "ty": 524,
      "Ġday": 525,
      "ning": 526,
      "Ġknew": 527,
      "Ġdis": 528,
      "Ġfir": 529,
      "so": 530,
      "Ġwhere": 531,
      "Ġroom": 532,
      "ady": 533,
      "his": 534,
      "ather": 535,
      "ru": 536,
      "Ġrem": 537,
      "Ġafter": 538,
      "side": 539,
      "Ġtell": 540,
      "sh": 541,
      "Ġunder": 542,
      "Ġmake": 543,
      "Ġour": 544,
      "ond": 545,
      "Ġmom": 546,
      "de": 547,
      "elt": 548,
      "gg": 549,
      "Ġpe": 550,
      "ried": 551,
      "ress": 552,
      "sp": 553,
      "Ġhapp": 554,
      "ber": 555,
      "Ġwal": 556,
      "ook": 557,
      "Ġtake": 558,
      "Ġwell": 559,
      "Ġ;": 560,
      "my": 561,
      "air": 562,
      "Ġcall": 563,
      "Ġbecause": 564,
      "Ġte": 565,
      "ase": 566,
      "ves": 567,
      "Ġjo": 568,
      "Ġcome": 569,
      "Ġfelt": 570,
      "Ġfirst": 571,
      "Ġcont": 572,
      "ah": 573,
      "ied": 574,
      "Ġvo": 575,
      "Ġtook": 576,
      "Ġhands": 577,
      "ple": 578,
      "ps": 579,
      "ose": 580,
      "what": 581,
      "Ġwanted": 582,
      "Ġtal": 583,
      "Ġturned": 584,
      "that": 585,
      "Ġem": 586,
      "Ġpull": 587,
      "Ġsw": 588,
      "Ġhel": 589,
      "ily": 590,
      "Ġnight": 591,
      "oth": 592,
      "pt": 593,
      "ans": 594,
      "row": 595,
      "Ġsure": 596,
      "ild": 597,
      "Ġapp": 598,
      "ks": 599,
      "Ġca": 600,
      "uck": 601,
      "pl": 602,
      "Ġreally": 603,
      "sed": 604,
      "ence": 605,
      "ia": 606,
      "ne": 607,
      "Ġagainst": 608,
      "Ġhas": 609,
      "Ġsk": 610,
      "Ġtry": 611,
      "ds": 612,
      "Ġstar": 613,
      "there": 614,
      "Ġvoice": 615,
      "Ġdes": 616,
      "Ġcame": 617,
      "anc": 618,
      "bb": 619,
      "get": 620,
      "ople": 621,
      "Ġcou": 622,
      "Ġleft": 623,
      "Ġsur": 624,
      "Ġel": 625,
      "per": 626,
      "Ġwhy": 627,
      "ish": 628,
      "Ġhard": 629,
      "Ġtold": 630,
      "Ġwom": 631,
      "Ġsec": 632,
      "ise": 633,
      "Ġreal": 634,
      "Ġfeel": 635,
      "Ġput": 636,
      "Ġpart": 637,
      "Ġmar": 638,
      "Ġbel": 639,
      "Ġper": 640,
      "av": 641,
      "Ġits": 642,
      "ross": 643,
      "Ġvery": 644,
      "mo": 645,
      "Ġlife": 646,
      "Ġside": 647,
      "Ġwhich": 648,
      "ful": 649,
      "Ġlast": 650,
      "Ġad": 651,
      "Ġbeh": 652,
      "Ġfew": 653,
      "hes": 654,
      "ears": 655,
      "ren": 656,
      "Ġbody": 657,
      "Ġpeople": 658,
      "Ġhelp": 659,
      "Ġmoment": 660,
      "Ġ-": 661,
      "Ġown": 662,
      "Ġwent": 663,
      "Ġwo": 664,
      "Ġfind": 665,
      "les": 666,
      "Ġfe": 667,
      "ned": 668,
      "az": 669,
      "Ġstr": 670,
      "for": 671,
      "Ġear": 672,
      "xt": 673,
      "Ġanything": 674,
      "Ġfin": 675,
      "Ġnew": 676,
      "Ġwait": 677,
      "ouse": 678,
      "Ġanother": 679,
      "Ġbreat": 680,
      "Ġbeing": 681,
      "Ġenough": 682,
      "ions": 683,
      "Ġph": 684,
      "Ġbed": 685,
      "Ġwhile": 686,
      "ens": 687,
      "Ġtoward": 688,
      "Ġlau": 689,
      "Ġsaw": 690,
      "igh": 691,
      "Ġbeg": 692,
      "Ġwar": 693,
      "Ġwr": 694,
      "Ġmight": 695,
      "Ġbu": 696,
      "owed": 697,
      "Ġbehind": 698,
      "Ġkeep": 699,
      "Ġmay": 700,
      "Ġlight": 701,
      "Ġlove": 702,
      "Ġcr": 703,
      "outh": 704,
      "Ġunt": 705,
      "Ġmat": 706,
      "ways": 707,
      "Ġgir": 708,
      "ys": 709,
      "Ġdoes": 710,
      "Ġsound": 711,
      "Ġsn": 712,
      "Ġthings": 713,
      "ail": 714,
      "Ġhair": 715,
      "Ġold": 716,
      "ness": 717,
      "ching": 718,
      "Ġdr": 719,
      "Ġdark": 720,
      "Ġmind": 721,
      "int": 722,
      "ince": 723,
      "ream": 724,
      "Ġever": 725,
      "Ġuntil": 726,
      "ord": 727,
      "Ġdec": 728,
      "Ġend": 729,
      "when": 730,
      "Ġfing": 731,
      "Ġcle": 732,
      "Ġopen": 733,
      "Ġnothing": 734,
      "Ġstu": 735,
      "ons": 736,
      "iend": 737,
      "Ġset": 738,
      "Ġent": 739,
      "then": 740,
      "Ġfriend": 741,
      "Ġcare": 742,
      "uc": 743,
      "ool": 744,
      "**": 745,
      "co": 746,
      "Ġthough": 747,
      "Ġgirl": 748,
      "Ġ:": 749,
      "ner": 750,
      "Ġplace": 751,
      "ian": 752,
      "Ġhouse": 753,
      "dded": 754,
      "Ġalways": 755,
      "Ġsat": 756,
      "Ġthose": 757,
      "Ġhome": 758,
      "how": 759,
      "Ġmouth": 760,
      "ower": 761,
      "Ġsmil": 762,
      "this": 763,
      "Ġatt": 764,
      "Ġfound": 765,
      "Ġnext": 766,
      "aw": 767,
      "rew": 768,
      "Ġfront": 769,
      "most": 770,
      "ank": 771,
      "Ġlooking": 772,
      "ating": 773,
      "Ġwork": 774,
      "not": 775,
      "Ġmin": 776,
      "Ġste": 777,
      "Ġboth": 778,
      "Ġcur": 779,
      "Ġmost": 780,
      "li": 781,
      "Ġrun": 782,
      "ually": 783,
      "Ġwoman": 784,
      "Ġhold": 785,
      "Ġhu": 786,
      "Ġsit": 787,
      "less": 788,
      "Ġhimself": 789,
      "Ġheart": 790,
      "Ġinside": 791,
      "ary": 792,
      "Ġrest": 793,
      "ory": 794,
      "Ġbit": 795,
      "os": 796,
      "Ġsil": 797,
      "Ġimp": 798,
      "amp": 799,
      "Ġact": 800,
      "Ġsame": 801,
      "Ġkill": 802,
      "Ġfar": 803,
      "ange": 804,
      "Ġass": 805,
      "Ġsmall": 806,
      "Ġheard": 807,
      "Ġrel": 808,
      "ween": 809,
      "ised": 810,
      "Ġseemed": 811,
      "Ġpulled": 812,
      "ung": 813,
      "Ġret": 814,
      "ng": 815,
      "Ġcour": 816,
      "Ġsho": 817,
      "Ġarms": 818,
      "Ġmother": 819,
      "Ġkiss": 820,
      "ert": 821,
      "Ġdidnt": 822,
      "Ġbetter": 823,
      "Ġstand": 824,
      "Ġhop": 825,
      "Ġser": 826,
      "Ġtrying": 827,
      "Ġfather": 828,
      "Ġflo": 829,
      "Ġgra": 830,
      "Ġwind": 831,
      "Ġbetween": 832,
      "ten": 833,
      "ret": 834,
      "Ġmean": 835,
      "Ġsmile": 836,
      "pping": 837,
      "Ġans": 838,
      "Ġdra": 839,
      "Ġwithout": 840,
      "Ġonce": 841,
      "Ġsto": 842,
      "Ġyes": 843,
      "its": 844,
      "Ġfam": 845,
      "Ġgi": 846,
      "Ġdeep": 847,
      "Ġcor": 848,
      "aught": 849,
      "ably": 850,
      "used": 851,
      "Ġhear": 852,
      "Ġgive": 853,
      "Ġspe": 854,
      "Ġmen": 855,
      "Ġstarted": 856,
      "Ġmyself": 857,
      "Ġgave": 858,
      "Ġpu": 859,
      "ped": 860,
      "ready": 861,
      "Ġpass": 862,
      "Ġacross": 863,
      "Ġeach": 864,
      "Ġdri": 865,
      "ict": 866,
      "ial": 867,
      "Ġple": 868,
      "ale": 869,
      "Ġstood": 870,
      "Ġdont": 871,
      "Ġsle": 872,
      "pr": 873,
      "Ġbre": 874,
      "Ġblack": 875,
      "Ġyears": 876,
      "Ġsomeone": 877,
      "Ġmust": 878,
      "shed": 879,
      "ached": 880,
      "cked": 881,
      "Ġblood": 882,
      "Ġbreath": 883,
      "kay": 884,
      "Ġquick": 885,
      "Ġbelie": 886,
      "Ġsecond": 887,
      "Ġhur": 888,
      "Ġalready": 889,
      "ors": 890,
      "Ġeverything": 891,
      "do": 892,
      "Ġdone": 893,
      "gether": 894,
      "ix": 895,
      "ater": 896,
      "ph": 897,
      "Ġkind": 898,
      "Ġelse": 899,
      "Ġmor": 900,
      "Ġwalked": 901,
      "Ġpain": 902,
      "Ġtried": 903,
      "Ġdoing": 904,
      "Ġru": 905,
      "Ġstay": 906,
      "bo": 907,
      "ash": 908,
      "Ġalmost": 909,
      "Ġstop": 910,
      "ible": 911,
      "Ġdro": 912,
      "Ġfoll": 913,
      "Ġlips": 914,
      "Ġbig": 915,
      "ever": 916,
      "Ġbar": 917,
      "Ġwords": 918,
      "Ġinst": 919,
      "Ġsince": 920,
      "Ġworld": 921,
      "Ġwall": 922,
      "Ġremem": 923,
      "pe": 924,
      "Ġtou": 925,
      "Ġswe": 926,
      "Ġclose": 927,
      "umb": 928,
      "Ġair": 929,
      "Ġtra": 930,
      "Ġthree": 931,
      "Ġcomp": 932,
      "Ġnodded": 933,
      "Ġsig": 934,
      "Ġtogether": 935,
      "ized": 936,
      "day": 937,
      "Ġseen": 938,
      "Ġlot": 939,
      "iet": 940,
      "ully": 941,
      "Ġfeet": 942,
      "ger": 943,
      "Ġminut": 944,
      "Ġheld": 945,
      "gs": 946,
      "Ġob": 947,
      "ured": 948,
      "Ġnear": 949,
      "Ġstart": 950,
      "iv": 951,
      "Ġquest": 952,
      "irt": 953,
      "inking": 954,
      "owing": 955,
      "Ġplay": 956,
      "Ġsupp": 957,
      "ained": 958,
      "rent": 959,
      "Ġdif": 960,
      "Ġfre": 961,
      "Ġmany": 962,
      "ud": 963,
      "Ġunderst": 964,
      "Ġmon": 965,
      "Ġpers": 966,
      "ason": 967,
      "Ġmiss": 968,
      "where": 969,
      "Ġsmiled": 970,
      "icked": 971,
      "ane": 972,
      "ently": 973,
      "Ġed": 974,
      "Ġmet": 975,
      "Ġwater": 976,
      "cl": 977,
      "Ġhum": 978,
      "ib": 979,
      "akes": 980,
      "Ġfeeling": 981,
      "Ġbegan": 982,
      "ced": 983,
      "ny": 984,
      "ither": 985,
      "Ġwhis": 986,
      "Ġtalk": 987,
      "Ġbad": 988,
      "Ġgre": 989,
      "Ġslow": 990,
      "rie": 991,
      "Ġev": 992,
      "ier": 993,
      "ser": 994,
      "by": 995,
      "Ġherself": 996,
      "Ġgreat": 997,
      "Ġtable": 998,
      "ished": 999,
      "Ġhell": 1000,
      "Ġmove": 1001,
      "gged": 1002,
      "Ġleave": 1003,
      "ention": 1004,
      "Ġgone": 1005,
      "Ġfloor": 1006,
      "Ġfingers": 1007,
      "Ġneeded": 1008,
      "Ġra": 1009,
      "ows": 1010,
      "Ġname": 1011,
      "vers": 1012,
      "Ġthese": 1013,
      "ying": 1014,
      "Ġchest": 1015,
      "ering": 1016,
      "Ġeas": 1017,
      "ms": 1018,
      "Ġdist": 1019,
      "aced": 1020,
      "Ġsim": 1021,
      "ense": 1022,
      "eah": 1023,
      "Ġpast": 1024,
      "ected": 1025,
      "ings": 1026,
      "Ġstep": 1027,
      "ush": 1028,
      "up": 1029,
      "Ġcourse": 1030,
      "Ġalso": 1031,
      "Ġconf": 1032,
      "Ġacc": 1033,
      "Ġchild": 1034,
      "now": 1035,
      "ately": 1036,
      "Ġsays": 1037,
      "Ġhour": 1038,
      "Ġgetting": 1039,
      "Ġalong": 1040,
      "ax": 1041,
      "Ġcalled": 1042,
      "Ġide": 1043,
      "Ġshook": 1044,
      "dden": 1045,
      "Ġwee": 1046,
      "Ġfore": 1047,
      "Ġokay": 1048,
      "Ġsor": 1049,
      "Ġsqu": 1050,
      "Ġbro": 1051,
      "der": 1052,
      "ined": 1053,
      "bably": 1054,
      "Ġfall": 1055,
      "Ġsuch": 1056,
      "Ġleast": 1057,
      "Ġchar": 1058,
      "Ġcoming": 1059,
      "Ġyet": 1060,
      "Ġhalf": 1061,
      "Ġint": 1062,
      "na": 1063,
      "with": 1064,
      "aned": 1065,
      "Ġmaybe": 1066,
      "Ġ1": 1067,
      "Ġreturn": 1068,
      "ical": 1069,
      "Ġbest": 1070,
      "Ġsoft": 1071,
      "aring": 1072,
      "Ġmoved": 1073,
      "Ġhappened": 1074,
      "Ġinv": 1075,
      "ipped": 1076,
      "Ġaw": 1077,
      "Ġcontin": 1078,
      "Ġred": 1079,
      "orm": 1080,
      "Ġtre": 1081,
      "Ġdead": 1082,
      "che": 1083,
      "Ġperson": 1084,
      "jo": 1085,
      "Ġsoon": 1086,
      "br": 1087,
      "Ġresp": 1088,
      "Ġreached": 1089,
      "Ġstopped": 1090,
      "Ġhigh": 1091,
      "Ġphone": 1092,
      "Ġz": 1093,
      "bbed": 1094,
      "Ġbus": 1095,
      "well": 1096,
      "Ġres": 1097,
      "just": 1098,
      "ition": 1099,
      "Ġbelieve": 1100,
      "Ġposs": 1101,
      "Ġansw": 1102,
      "Ġeye": 1103,
      "Ġhor": 1104,
      "Ġfamily": 1105,
      "ene": 1106,
      "ired": 1107,
      "ided": 1108,
      "ged": 1109,
      "Ġopened": 1110,
      "app": 1111,
      "Ġboy": 1112,
      "Ġcra": 1113,
      "tered": 1114,
      "idd": 1115,
      "Ġcomm": 1116,
      "ual": 1117,
      "aid": 1118,
      "Ġask": 1119,
      "Ġmorning": 1120,
      "Ġlater": 1121,
      "Ġmaking": 1122,
      "Ġskin": 1123,
      "Ġprobably": 1124,
      "Ġsleep": 1125,
      "Ġmeet": 1126,
      "Ġtight": 1127,
      "Ġfire": 1128,
      "Ġter": 1129,
      "Ġsurpr": 1130,
      "let": 1131,
      "Ġpat": 1132,
      "eth": 1133,
      "room": 1134,
      "ening": 1135,
      "iously": 1136,
      "ister": 1137,
      "Ġidea": 1138,
      "aut": 1139,
      "Ġused": 1140,
      "Ġhot": 1141,
      "Ġmr": 1142,
      "Ġoh": 1143,
      "arent": 1144,
      "fully": 1145,
      "man": 1146,
      "Ġpar": 1147,
      "Ġunderstand": 1148,
      "Ġwhite": 1149,
      "after": 1150,
      "Ġpress": 1151,
      "Ġyoung": 1152,
      "ept": 1153,
      "Ġgaz": 1154,
      "Ġran": 1155,
      "ins": 1156,
      "cept": 1157,
      "head": 1158,
      "gn": 1159,
      "Ġgod": 1160,
      "Ġbrother": 1161,
      "Ġap": 1162,
      "rest": 1163,
      "Ġanyone": 1164,
      "ction": 1165,
      "Ġdam": 1166,
      "Ġinter": 1167,
      "Ġread": 1168,
      "Ġdire": 1169,
      "Ġdays": 1170,
      "Ġdiffe": 1171,
      "Ġfact": 1172,
      "Ġstra": 1173,
      "ount": 1174,
      "Ġes": 1175,
      "Ġkept": 1176,
      "Ġlist": 1177,
      "Ġpoint": 1178,
      "Ġmatter": 1179,
      "Ġneck": 1180,
      "Ġsorry": 1181,
      "Ġshoulder": 1182,
      "may": 1183,
      "ton": 1184,
      "Ġlar": 1185,
      "ued": 1186,
      "Ġforward": 1187,
      "iness": 1188,
      "Ġground": 1189,
      "Ġtop": 1190,
      "Ġsudden": 1191,
      "ertain": 1192,
      "Ġremember": 1193,
      "Ġfight": 1194,
      "Ġcat": 1195,
      "Ġcomple": 1196,
      "why": 1197,
      "Ġquiet": 1198,
      "Ġcut": 1199,
      "Ġhurt": 1200,
      "Ġrepl": 1201,
      "Ġdem": 1202,
      "oke": 1203,
      "Ġquickly": 1204,
      "anced": 1205,
      "Ġvis": 1206,
      "aken": 1207,
      "uth": 1208,
      "ents": 1209,
      "Ġmag": 1210,
      "Ġguy": 1211,
      "Ġpower": 1212,
      "Ġfinally": 1213,
      "Ġtaking": 1214,
      "Ġroll": 1215,
      "oh": 1216,
      "Ġplan": 1217,
      "Ġonto": 1218,
      "ize": 1219,
      "Ġhit": 1220,
      "aps": 1221,
      "ife": 1222,
      "Ġable": 1223,
      "Ġdress": 1224,
      "Ġreg": 1225,
      "Ġfell": 1226,
      "Ġrep": 1227,
      "Ġwrong": 1228,
      "Ġfull": 1229,
      "Ġalone": 1230,
      "oney": 1231,
      "Ġthinking": 1232,
      "Ġexpl": 1233,
      "Ġbab": 1234,
      "Ġclosed": 1235,
      "Ġlaugh": 1236,
      "Ġuse": 1237,
      "ically": 1238,
      "Ġclear": 1239,
      "Ġdel": 1240,
      "Ġready": 1241,
      "any": 1242,
      "Ġrec": 1243,
      "Ġmine": 1244,
      "Ġquestion": 1245,
      "ead": 1246,
      "bl": 1247,
      "Ġsun": 1248,
      "Ġlea": 1249,
      "cc": 1250,
      "Ġtalking": 1251,
      "Ġhaving": 1252,
      "Ġbeaut": 1253,
      "ult": 1254,
      "Ġhar": 1255,
      "Ġprot": 1256,
      "Ġinc": 1257,
      "Ġcoll": 1258,
      "Ġcap": 1259,
      "fort": 1260,
      "airs": 1261,
      "Ġwatched": 1262,
      "Ġstared": 1263,
      "ghed": 1264,
      "Ġpur": 1265,
      "Ġref": 1266,
      "Ġinte": 1267,
      "Ġsch": 1268,
      "vel": 1269,
      "maybe": 1270,
      "Ġwonder": 1271,
      "Ġminutes": 1272,
      "Ġthro": 1273,
      "Ġdet": 1274,
      "yes": 1275,
      "Ġbot": 1276,
      "ets": 1277,
      "Ġdad": 1278,
      "Ġbook": 1279,
      "Ġwhisp": 1280,
      "Ġpret": 1281,
      "go": 1282,
      "Ġfig": 1283,
      "Ġcons": 1284,
      "Ġpol": 1285,
      "Ġstre": 1286,
      "Ġfill": 1287,
      "Ġjack": 1288,
      "io": 1289,
      "Ġtri": 1290,
      "Ġslowly": 1291,
      "Ġlost": 1292,
      "Ġcol": 1293,
      "night": 1294,
      "Ġmus": 1295,
      "apter": 1296,
      "fect": 1297,
      "ump": 1298,
      "Ġword": 1299,
      "Ġdou": 1300,
      "Ġtimes": 1301,
      "mm": 1302,
      "Ġland": 1303,
      "Ġreason": 1304,
      "Ġglass": 1305,
      "Ġshort": 1306,
      "Ġfine": 1307,
      "Ġoutside": 1308,
      "Ġeither": 1309,
      "ased": 1310,
      "Ġwhole": 1311,
      "Ġguess": 1312,
      "Ġcold": 1313,
      "Ġkid": 1314,
      "Ġwalk": 1315,
      "Ġyeah": 1316,
      "Ġhall": 1317,
      "Ġbur": 1318,
      "ides": 1319,
      "cer": 1320,
      "Ġmem": 1321,
      "Ġlow": 1322,
      "Ġdifferent": 1323,
      "ations": 1324,
      "ken": 1325,
      "Ġprom": 1326,
      "vered": 1327,
      "Ġlaughed": 1328,
      "Ġpretty": 1329,
      "ames": 1330,
      "Ġcal": 1331,
      "Ġlou": 1332,
      "Ġchee": 1333,
      "Ġfour": 1334,
      "inted": 1335,
      "Ġeveryone": 1336,
      "ips": 1337,
      "ming": 1338,
      "Ġactually": 1339,
      "iver": 1340,
      "Ġgrin": 1341,
      "Ġlif": 1342,
      "ho": 1343,
      "Ġbreak": 1344,
      "Ġanswer": 1345,
      "Ġcaught": 1346,
      "rought": 1347,
      "unt": 1348,
      "Ġfriends": 1349,
      "Ġmur": 1350,
      "ited": 1351,
      "Ġgaze": 1352,
      "ures": 1353,
      "Ġlegs": 1354,
      "ey": 1355,
      "Ġje": 1356,
      "ards": 1357,
      "land": 1358,
      "Ġcomplete": 1359,
      "Ġstanding": 1360,
      "Ġfur": 1361,
      "Ġele": 1362,
      "Ġtaken": 1363,
      "Ġwaiting": 1364,
      "Ġid": 1365,
      "Ġunc": 1366,
      "cus": 1367,
      "Ġhope": 1368,
      "uring": 1369,
      "als": 1370,
      "Ġfree": 1371,
      "Ġshot": 1372,
      "eared": 1373,
      "Ġkit": 1374,
      "Ġago": 1375,
      "Ġdeath": 1376,
      "Ġlay": 1377,
      "Ġexact": 1378,
      "enty": 1379,
      "Ġshow": 1380,
      "Ġbes": 1381,
      "Ġmeant": 1382,
      "Ġbrought": 1383,
      "Ġblue": 1384,
      "like": 1385,
      "iding": 1386,
      "Ġsex": 1387,
      "Ġscream": 1388,
      "Ġblo": 1389,
      "fin": 1390,
      "Ġpres": 1391,
      "Ġfun": 1392,
      "Ġwindow": 1393,
      "Ġwarm": 1394,
      "Ġbuild": 1395,
      "Ġwhispered": 1396,
      "Ġdream": 1397,
      "Ġschool": 1398,
      "Ġimag": 1399,
      "Ġbare": 1400,
      "Ġcount": 1401,
      "Ġthroat": 1402,
      "Ġins": 1403,
      "osed": 1404,
      "Ġothers": 1405,
      "Ġcertain": 1406,
      "iful": 1407,
      "zy": 1408,
      "even": 1409,
      "Ġless": 1410,
      "Ġtom": 1411,
      "Ġ)": 1412,
      "Ġcho": 1413,
      "Ġstrong": 1414,
      "Ġwasnt": 1415,
      "Ġseat": 1416,
      "Ġquite": 1417,
      "Ġstraight": 1418,
      "Ġperfect": 1419,
      "Ġlooks": 1420,
      "acked": 1421,
      "ub": 1422,
      "Ġlarge": 1423,
      "Ġglanced": 1424,
      "Ġbring": 1425,
      "gr": 1426,
      "Ġind": 1427,
      "ime": 1428,
      "ters": 1429,
      "Ġmess": 1430,
      "Ġhappy": 1431,
      "Ġleaned": 1432,
      "Ġsign": 1433,
      "ular": 1434,
      "anger": 1435,
      "every": 1436,
      "ants": 1437,
      "Ġsister": 1438,
      "Ġadm": 1439,
      "Ġtouch": 1440,
      "Ġstepped": 1441,
      "Ġjob": 1442,
      "Ġsense": 1443,
      "Ġfoot": 1444,
      "ates": 1445,
      "Ġang": 1446,
      "Ġsent": 1447,
      "orn": 1448,
      "chen": 1449,
      "Ġemp": 1450,
      "more": 1451,
      "anged": 1452,
      "Ġcross": 1453,
      "Ġcry": 1454,
      "Ġsub": 1455,
      "iced": 1456,
      "Ġwood": 1457,
      "Ġsy": 1458,
      "Ġsuddenly": 1459,
      "Ġdisapp": 1460,
      "rol": 1461,
      "ove": 1462,
      "read": 1463,
      "Ġfollowed": 1464,
      "Ġcontinued": 1465,
      "Ġentire": 1466,
      "ird": 1467,
      "nding": 1468,
      "Ġexc": 1469,
      "Ġchair": 1470,
      "Ġholding": 1471,
      "Ġbat": 1472,
      "Ġburn": 1473,
      "though": 1474,
      "Ġgun": 1475,
      "some": 1476,
      "Ġgrabbed": 1477,
      "Ġrealized": 1478,
      "me": 1479,
      "Ġtown": 1480,
      "ik": 1481,
      "Ġwatch": 1482,
      "Ġten": 1483,
      "ze": 1484,
      "ield": 1485,
      "Ġsitting": 1486,
      "Ġshut": 1487,
      "veral": 1488,
      "Ġbeautiful": 1489,
      "Ġexactly": 1490,
      "otion": 1491,
      "ression": 1492,
      "haps": 1493,
      "Ġlead": 1494,
      "Ġwatching": 1495,
      "Ġhes": 1496,
      "Ġbaby": 1497,
      "ape": 1498,
      "Ġreplied": 1499,
      "Ġclot": 1500,
      "Ġhuman": 1501,
      "Ġnice": 1502,
      "aces": 1503,
      "lt": 1504,
      "Ġthr": 1505,
      "Ġattention": 1506,
      "Ġmoney": 1507,
      "Ġgen": 1508,
      "Ġhours": 1509,
      "nded": 1510,
      "Ġrunning": 1511,
      "sing": 1512,
      "Ġcloser": 1513,
      "rist": 1514,
      "apped": 1515,
      "aged": 1516,
      "Ġappro": 1517,
      "Ġroad": 1518,
      "Ġdeal": 1519,
      "Ġpushed": 1520,
      "aster": 1521,
      "Ġlonger": 1522,
      "Ġwin": 1523,
      "Ġmonth": 1524,
      "Ġsaying": 1525,
      "Ġna": 1526,
      "ma": 1527,
      "Ġspeak": 1528,
      "Ġshru": 1529,
      "Ġtrue": 1530,
      "ls": 1531,
      "Ġfear": 1532,
      "Ġdin": 1533,
      "Ġwra": 1534,
      "Ġkitchen": 1535,
      "Ġchance": 1536,
      "Ġpap": 1537,
      "Ġty": 1538,
      "Ġapart": 1539,
      "Ġliving": 1540,
      "Ġline": 1541,
      "irc": 1542,
      "Ġinterest": 1543,
      "Ġlear": 1544,
      "Ġsing": 1545,
      "ster": 1546,
      "chapter": 1547,
      "ison": 1548,
      "Ġeng": 1549,
      "Ġ(": 1550,
      "Ġhung": 1551,
      "Ġill": 1552,
      "ina": 1553,
      "Ġbag": 1554,
      "ann": 1555,
      "Ġshoulders": 1556,
      "Ġshit": 1557,
      "isted": 1558,
      "ient": 1559,
      "ches": 1560,
      "gan": 1561,
      "bed": 1562,
      "Ġplease": 1563,
      "Ġstru": 1564,
      "Ġer": 1565,
      "Ġcouple": 1566,
      "Ġslight": 1567,
      "Ġcent": 1568,
      "form": 1569,
      "Ġstom": 1570,
      "fr": 1571,
      "Ġdecided": 1572,
      "Ġsweet": 1573,
      "Ġproble": 1574,
      "Ġpri": 1575,
      "Ġyell": 1576,
      "Ġfive": 1577,
      "Ġchange": 1578,
      "Ġwomen": 1579,
      "gy": 1580,
      "ift": 1581,
      "Ġheav": 1582,
      "imes": 1583,
      "Ġtem": 1584,
      "Ġloved": 1585,
      "cess": 1586,
      "Ġyear": 1587,
      "Ġcase": 1588,
      "Ġbusiness": 1589,
      "Ġpa": 1590,
      "cent": 1591,
      "ought": 1592,
      "Ġson": 1593,
      "Ġlive": 1594,
      "ially": 1595,
      "Ġsmell": 1596,
      "ines": 1597,
      "Ġbeside": 1598,
      "antly": 1599,
      "ones": 1600,
      "Ġtonight": 1601,
      "Ġvamp": 1602,
      "Ġseveral": 1603,
      "ject": 1604,
      "Ġmad": 1605,
      "Ġgiven": 1606,
      "Ġdropped": 1607,
      "Ġshad": 1608,
      "Ġoffice": 1609,
      "Ġparent": 1610,
      "ains": 1611,
      "Ġsafe": 1612,
      "Ġeff": 1613,
      "iff": 1614,
      "sel": 1615,
      "Ġtoday": 1616,
      "Ġknown": 1617,
      "light": 1618,
      "Ġfast": 1619,
      "Ġshirt": 1620,
      "Ġve": 1621,
      "Ġcirc": 1622,
      "Ġgrand": 1623,
      "cy": 1624,
      "Ġsix": 1625,
      "een": 1626,
      "Ġcouldnt": 1627,
      "Ġform": 1628,
      "Ġreco": 1629,
      "Ġir": 1630,
      "ots": 1631,
      "Ġpal": 1632,
      "cking": 1633,
      "Ġtrust": 1634,
      "ror": 1635,
      "Ġsort": 1636,
      "Ġcity": 1637,
      "iew": 1638,
      "Ġstreet": 1639,
      "Ġmoving": 1640,
      "Ġrock": 1641,
      "Ġleaving": 1642,
      "ising": 1643,
      "Ġadd": 1644,
      "ars": 1645,
      "Ġwhatever": 1646,
      "Ġdrink": 1647,
      "Ġcontrol": 1648,
      "Ġabove": 1649,
      "Ġfinger": 1650,
      "Ġdoub": 1651,
      "iny": 1652,
      "Ġspoke": 1653,
      "els": 1654,
      "Ġtruth": 1655,
      "Ġpassed": 1656,
      "Ġbene": 1657,
      "Ġnor": 1658,
      "wor": 1659,
      "ply": 1660,
      "ief": 1661,
      "oun": 1662,
      "ience": 1663,
      "Ġarri": 1664,
      "unch": 1665,
      "Ġmil": 1666,
      "of": 1667,
      "Ġrose": 1668,
      "Ġhon": 1669,
      "Ġraised": 1670,
      "lly": 1671,
      "Ġav": 1672,
      "ashed": 1673,
      "ility": 1674,
      "Ġgri": 1675,
      "Ġesc": 1676,
      "body": 1677,
      "Ġvampire": 1678,
      "Ġaf": 1679,
      "ja": 1680,
      "Ġcreat": 1681,
      "Ġce": 1682,
      "umped": 1683,
      "Ġcant": 1684,
      "Ġtor": 1685,
      "Ġking": 1686,
      "Ġstomach": 1687,
      "Ġspec": 1688,
      "lex": 1689,
      "ara": 1690,
      "ging": 1691,
      "Ġthank": 1692,
      "aining": 1693,
      "Ġpict": 1694,
      "Ġcoff": 1695,
      "Ġworking": 1696,
      "come": 1697,
      "Ġsky": 1698,
      "raid": 1699,
      "Ġtrou": 1700,
      "Ġpay": 1701,
      "Ġupon": 1702,
      "Ġma": 1703,
      "Ġcrow": 1704,
      "ident": 1705,
      "hn": 1706,
      "Ġlate": 1707,
      "gth": 1708,
      "Ġcompletely": 1709,
      "Ġbegin": 1710,
      "Ġparents": 1711,
      "Ġtowards": 1712,
      "tem": 1713,
      "Ġworry": 1714,
      "vent": 1715,
      "Ġtears": 1716,
      "ha": 1717,
      "Ġgreen": 1718,
      "medi": 1719,
      "Ġfilled": 1720,
      "Ġguys": 1721,
      "Ġcorner": 1722,
      "ley": 1723,
      "Ġner": 1724,
      "Ġrather": 1725,
      "right": 1726,
      "Ġpicked": 1727,
      "Ġweek": 1728,
      "Ġcre": 1729,
      "tom": 1730,
      "Ġgas": 1731,
      "Ġbright": 1732,
      "Ġsam": 1733,
      "Ġfood": 1734,
      "Ġhappen": 1735,
      "acing": 1736,
      "Ġmakes": 1737,
      "Ġlifted": 1738,
      "bec": 1739,
      "Ġdev": 1740,
      "did": 1741,
      "Ġforg": 1742,
      "Ġyourself": 1743,
      "Ġedge": 1744,
      "Ġtong": 1745,
      "bs": 1746,
      "ushing": 1747,
      "Ġsupposed": 1748,
      "ony": 1749,
      "Ġsighed": 1750,
      "Ġpleas": 1751,
      "Ġmut": 1752,
      "ien": 1753,
      "Ġexpression": 1754,
      "Ġwond": 1755,
      "ike": 1756,
      "Ġnoticed": 1757,
      "ndred": 1758,
      "Ġreturned": 1759,
      "Ġstuff": 1760,
      "Ġnat": 1761,
      "Ġnearly": 1762,
      "wered": 1763,
      "Ġmir": 1764,
      "Ġconvers": 1765,
      "su": 1766,
      "Ġstory": 1767,
      "Ġstaring": 1768,
      "ection": 1769,
      "unk": 1770,
      "Ġwalking": 1771,
      "Ġbox": 1772,
      "Ġkno": 1773,
      "Ġmist": 1774,
      "Ġobv": 1775,
      "Ġshar": 1776,
      "Ġenjo": 1777,
      "Ġseem": 1778,
      "Ġfrown": 1779,
      "Ġkilled": 1780,
      "Ġext": 1781,
      "somet": 1782,
      "Ġsecret": 1783,
      "itch": 1784,
      "ilt": 1785,
      "ign": 1786,
      "Ġpos": 1787,
      "Ġcapt": 1788,
      "Ġhang": 1789,
      "Ġgro": 1790,
      "Ġcoun": 1791,
      "Ġgirls": 1792,
      "Ġclothes": 1793,
      "Ġteeth": 1794,
      "Ġcoffee": 1795,
      "Ġgrow": 1796,
      "Ġinstead": 1797,
      "Ġeat": 1798,
      "Ġabs": 1799,
      "Ġdamn": 1800,
      "Ġkissed": 1801,
      "Ġimmedi": 1802,
      "Ġdraw": 1803,
      "set": 1804,
      "Ġtwenty": 1805,
      "Ġopp": 1806,
      "Ġshout": 1807,
      "Ġsilence": 1808,
      "Ġthoughts": 1809,
      "Ġwaited": 1810,
      "Ġworked": 1811,
      "Ġwide": 1812,
      "Ġstro": 1813,
      "Ġdep": 1814,
      "Ġdrive": 1815,
      "Ġwife": 1816,
      "Ġbuilding": 1817,
      "ute": 1818,
      "son": 1819,
      "ship": 1820,
      "Ġsight": 1821,
      "use": 1822,
      "Ġpet": 1823,
      "Ġafraid": 1824,
      "Ġocc": 1825,
      "Ġ2": 1826,
      "Ġseeing": 1827,
      "Ġdie": 1828,
      "pted": 1829,
      "Ġbecome": 1830,
      "yed": 1831,
      "Ġpossible": 1832,
      "ees": 1833,
      "Ġsear": 1834,
      "Ġloud": 1835,
      "ric": 1836,
      "ug": 1837,
      "irty": 1838,
      "Ġchildren": 1839,
      "Ġtongue": 1840,
      "Ġrolled": 1841,
      "umber": 1842,
      "Ġgiving": 1843,
      "Ġ*": 1844,
      "Ġhundred": 1845,
      "Ġyoure": 1846,
      "Ġeasy": 1847,
      "Ġgold": 1848,
      "iddle": 1849,
      "Ġanswered": 1850,
      "ky": 1851,
      "Ġanyway": 1852,
      "Ġleg": 1853,
      "Ġimport": 1854,
      "Ġwondered": 1855,
      "Ġsusp": 1856,
      "orrow": 1857,
      "aim": 1858,
      "Ġspot": 1859,
      "Ġfrey": 1860,
      "Ġguard": 1861,
      "Ġknowing": 1862,
      "Ġgrou": 1863,
      "ator": 1864,
      "Ġwithin": 1865,
      "ili": 1866,
      "vin": 1867,
      "Ġpressed": 1868,
      "zz": 1869,
      "Ġpointed": 1870,
      "ments": 1871,
      "Ġdesk": 1872,
      "iting": 1873,
      "Ġgar": 1874,
      "ex": 1875,
      "Ġstud": 1876,
      "Ġconn": 1877,
      "Ġtelling": 1878,
      "Ġbarely": 1879,
      "Ġsou": 1880,
      "Ġagre": 1881,
      "Ġminute": 1882,
      "Ġball": 1883,
      "Ġsurprised": 1884,
      "Ġthick": 1885,
      "sy": 1886,
      "com": 1887,
      "Ġpick": 1888,
      "aint": 1889,
      "Ġclim": 1890,
      "rief": 1891,
      "ider": 1892,
      "Ġsens": 1893,
      "ists": 1894,
      "Ġdanger": 1895,
      "Ġshrugged": 1896,
      "Ġsad": 1897,
      "Ġspr": 1898,
      "Ġfigure": 1899,
      "Ġknows": 1900,
      "selves": 1901,
      "Ġproblem": 1902,
      "Ġled": 1903,
      "Ġremind": 1904,
      "amed": 1905,
      "Ġbeneath": 1906,
      "Ġsmo": 1907,
      "ler": 1908,
      "aled": 1909,
      "Ġempty": 1910,
      "Ġstrange": 1911,
      "icking": 1912,
      "here": 1913,
      "Ġcheek": 1914,
      "Ġfreyja": 1915,
      "Ġord": 1916,
      "Ġpock": 1917,
      "umbled": 1918,
      "bered": 1919,
      "Ġnorm": 1920,
      "Ġslid": 1921,
      "Ġmiddle": 1922,
      "ities": 1923,
      "Ġdirect": 1924,
      "Ġbath": 1925,
      "Ġluc": 1926,
      "aded": 1927,
      "wo": 1928,
      "aughter": 1929,
      "Ġaff": 1930,
      "Ġcam": 1931,
      "sc": 1932,
      "Ġconversation": 1933,
      "Ġchanged": 1934,
      "Ġsal": 1935,
      "Ġ--": 1936,
      "Ġmark": 1937,
      "ices": 1938,
      "Ġclass": 1939,
      "pid": 1940,
      "ances": 1941,
      "Ġexper": 1942,
      "Ġorder": 1943,
      "ories": 1944,
      "Ġmonths": 1945,
      "Ġliked": 1946,
      "mb": 1947,
      "Ġappeared": 1948,
      "Ġcrowd": 1949,
      "iece": 1950,
      "att": 1951,
      "Ġann": 1952,
      "Ġnar": 1953,
      "Ġstri": 1954,
      "Ġbecame": 1955,
      "Ġlady": 1956,
      "Ġdied": 1957,
      "Ġdoubt": 1958,
      "Ġnose": 1959,
      "Ġwearing": 1960,
      "Ġmer": 1961,
      "Ġterri": 1962,
      "action": 1963,
      "Ġchrist": 1964,
      "Ġsimply": 1965,
      "ask": 1966,
      "band": 1967,
      "Ġconcer": 1968,
      "Ġfinished": 1969,
      "Ġdest": 1970,
      "Ġimmediately": 1971,
      "Ġturning": 1972,
      "Ġheavy": 1973,
      "Ġround": 1974,
      "Ġjer": 1975,
      "Ġadmit": 1976,
      "iling": 1977,
      "Ġclean": 1978,
      "Ġhus": 1979,
      "Ġpaper": 1980,
      "uff": 1981,
      "Ġhun": 1982,
      "ude": 1983,
      "Ġanymore": 1984,
      "mar": 1985,
      "was": 1986,
      "Ġring": 1987,
      "pec": 1988,
      "Ġstone": 1989,
      "Ġloc": 1990,
      "ement": 1991,
      "Ġart": 1992,
      "Ġwish": 1993,
      "Ġsteps": 1994,
      "Ġnumber": 1995,
      "Ġslightly": 1996,
      "Ġknees": 1997,
      "Ġadv": 1998,
      "Ġsounded": 1999,
      "who": 2000,
      "Ġke": 2001,
      "Ġthrow": 2002,
      "Ġstupid": 2003,
      "Ġsol": 2004,
      "Ġda": 2005,
      "Ġspent": 2006,
      "ision": 2007,
      "bbing": 2008,
      "Ġsir": 2009,
      "Ġbedroom": 2010,
      "Ġmount": 2011,
      "iled": 2012,
      "Ġluck": 2013,
      "Ġcover": 2014,
      "Ġcalm": 2015,
      "la": 2016,
      "Ġfair": 2017,
      "Ġcovered": 2018,
      "Ġlim": 2019,
      "Ġpack": 2020,
      "ively": 2021,
      "ital": 2022,
      "Ġdinner": 2023,
      "Ġdirection": 2024,
      "olo": 2025,
      "Ġben": 2026,
      "Ġgener": 2027,
      "Ġhers": 2028,
      "Ġperhaps": 2029,
      "Ġsel": 2030,
      "ces": 2031,
      "Ġadded": 2032,
      "Ġimportant": 2033,
      "Ġweeks": 2034,
      "Ġmed": 2035,
      "Ġlord": 2036,
      "Ġble": 2037,
      "Ġbill": 2038,
      "Ġcop": 2039,
      "cks": 2040,
      "Ġtall": 2041,
      "Ġearth": 2042,
      "ns": 2043,
      "Ġgroup": 2044,
      "Ġwants": 2045,
      "Ġcast": 2046,
      "Ġbra": 2047,
      "Ġduring": 2048,
      "Ġhed": 2049,
      "rence": 2050,
      "Ġpan": 2051,
      "Ġpolice": 2052,
      "Ġrele": 2053,
      "pecially": 2054,
      "Ġur": 2055,
      "Ġpulling": 2056,
      "ci": 2057,
      "Ġsurprise": 2058,
      "old": 2059,
      "Ġsoftly": 2060,
      "con": 2061,
      "Ġones": 2062,
      "gu": 2063,
      "Ġsand": 2064,
      "Ġmusc": 2065,
      "because": 2066,
      "Ġforce": 2067,
      "Ġinform": 2068,
      "Ġtrouble": 2069,
      "vous": 2070,
      "Ġcrazy": 2071,
      "fl": 2072,
      "Ġcool": 2073,
      "Ġjohn": 2074,
      "Ġcomfort": 2075,
      "Ġtouched": 2076,
      "Ġsold": 2077,
      "once": 2078,
      "Ġalive": 2079,
      "Ġexcept": 2080,
      "Ġbeat": 2081,
      "Ġbroke": 2082,
      "ails": 2083,
      "bar": 2084,
      "Ġstate": 2085,
      "Ġbrown": 2086,
      "Ġdaughter": 2087,
      "Ġquietly": 2088,
      "Ġcell": 2089,
      "yond": 2090,
      "ages": 2091,
      "Ġfly": 2092,
      "Ġrecogn": 2093,
      "Ġfav": 2094,
      "aching": 2095,
      "Ġgently": 2096,
      "Ġattack": 2097,
      "Ġla": 2098,
      "Ġtone": 2099,
      "Ġalex": 2100,
      "Ġsingle": 2101,
      "teen": 2102,
      "Ġfro": 2103,
      "Ġnarrow": 2104,
      "Ġreach": 2105,
      "Ġwrapped": 2106,
      "Ġkids": 2107,
      "ney": 2108,
      "Ġheaded": 2109,
      "Ġthrew": 2110,
      "Ġhesit": 2111,
      "ael": 2112,
      "Ġprof": 2113,
      "Ġbroken": 2114,
      "Ġlu": 2115,
      "hel": 2116,
      "Ġstairs": 2117,
      "Ġremembered": 2118,
      "oring": 2119,
      "can": 2120,
      "Ġglad": 2121,
      "Ġarea": 2122,
      "Ġwild": 2123,
      "Ġpract": 2124,
      "Ġsounds": 2125,
      "Ġsitu": 2126,
      "Ġsumm": 2127,
      "Ġpen": 2128,
      "ctor": 2129,
      "oof": 2130,
      "Ġmanaged": 2131,
      "itely": 2132,
      "Ġtiny": 2133,
      "Ġahead": 2134,
      "Ġtrees": 2135,
      "ery": 2136,
      "Ġpaused": 2137,
      "ibly": 2138,
      "your": 2139,
      "Ġbru": 2140,
      "Ġsquee": 2141,
      "Ġtree": 2142,
      "Ġworried": 2143,
      "Ġrid": 2144,
      "Ġworse": 2145,
      "Ġshif": 2146,
      "Ġforget": 2147,
      "Ġlie": 2148,
      "Ġdrag": 2149,
      "gging": 2150,
      "Ġprep": 2151,
      "Ġspace": 2152,
      "ior": 2153,
      "Ġthreat": 2154,
      "Ġden": 2155,
      "ipp": 2156,
      "Ġprotect": 2157,
      "Ġsugg": 2158,
      "Ġmagic": 2159,
      "Ġplaced": 2160,
      "thats": 2161,
      "Ġsick": 2162,
      "Ġcheck": 2163,
      "Ġtomorrow": 2164,
      "Ġswall": 2165,
      "Ġhuge": 2166,
      "hered": 2167,
      "Ġfollow": 2168,
      "Ġquestions": 2169,
      "Ġdrew": 2170,
      "fer": 2171,
      "Ġmention": 2172,
      "Ġlip": 2173,
      "Ġsilent": 2174,
      "Ġearly": 2175,
      "Ġmeans": 2176,
      "Ġdarkness": 2177,
      "Ġwed": 2178,
      "Ġgray": 2179,
      "sure": 2180,
      "Ġjul": 2181,
      "Ġgame": 2182,
      "Ġserious": 2183,
      "Ġcomes": 2184,
      "Ġview": 2185,
      "Ġthanks": 2186,
      "anie": 2187,
      "Ġcab": 2188,
      "Ġtow": 2189,
      "Ġhusband": 2190,
      "tern": 2191,
      "riend": 2192,
      "Ġpiece": 2193,
      "Ġweak": 2194,
      "cious": 2195,
      "Ġspl": 2196,
      "Ġdoors": 2197,
      "Ġdistance": 2198,
      "Ġexpected": 2199,
      "Ġwalls": 2200,
      "Ġparty": 2201,
      "lie": 2202,
      "Ġwet": 2203,
      "Ġvict": 2204,
      "Ġwound": 2205,
      "ination": 2206,
      "Ġstret": 2207,
      "ping": 2208,
      "Ġself": 2209,
      "Ġscr": 2210,
      "Ġfle": 2211,
      "zed": 2212,
      "Ġsomewhere": 2213,
      "Ġnews": 2214,
      "Ġlean": 2215,
      "cing": 2216,
      "ining": 2217,
      "Ġseems": 2218,
      "Ġgotten": 2219,
      "Ġcatch": 2220,
      "Ġstare": 2221,
      "fic": 2222,
      "Ġrich": 2223,
      "Ġlaw": 2224,
      "Ġpath": 2225,
      "ica": 2226,
      "Ġmeeting": 2227,
      "Ġoften": 2228,
      "Ġsett": 2229,
      "Ġcarry": 2230,
      "Ġspread": 2231,
      "Ġdemand": 2232,
      "Ġpocket": 2233,
      "Ġbir": 2234,
      "Ġseconds": 2235,
      "ding": 2236,
      "Ġheat": 2237,
      "Ġgent": 2238,
      "Ġposition": 2239,
      "Ġserv": 2240,
      "Ġbrief": 2241,
      "Ġangry": 2242,
      "Ġbeyond": 2243,
      "esh": 2244,
      "Ġcas": 2245,
      "Ġwaist": 2246,
      "than": 2247,
      "Ġbottom": 2248,
      "inst": 2249,
      "orted": 2250,
      "ested": 2251,
      "Ġfif": 2252,
      "Ġtired": 2253,
      "Ġoffic": 2254,
      "cted": 2255,
      "Ġeight": 2256,
      "Ġsword": 2257,
      "Ġpee": 2258,
      "lier": 2259,
      "Ġange": 2260,
      "yeah": 2261,
      "Ġign": 2262,
      "Ġinformation": 2263,
      "Ġpriv": 2264,
      "Ġevening": 2265,
      "Ġcond": 2266,
      "aped": 2267,
      "Ġboys": 2268,
      "Ġjaw": 2269,
      "ific": 2270,
      "Ġrespond": 2271,
      "Ġmis": 2272,
      "Ġagreed": 2273,
      "Ġrain": 2274,
      "Ġexpect": 2275,
      "Ġcompl": 2276,
      "Ġfurther": 2277,
      "Ġhide": 2278,
      "Ġlying": 2279,
      "ats": 2280,
      "Ġanger": 2281,
      "Ġtu": 2282,
      "Ġstrugg": 2283,
      "str": 2284,
      "ana": 2285,
      "Ġfit": 2286,
      "Ġsometimes": 2287,
      "Ġthats": 2288,
      "Ġapartment": 2289,
      "Ġforced": 2290,
      "Ġblank": 2291,
      "Ġnervous": 2292,
      "Ġris": 2293,
      "something": 2294,
      "Ġforgot": 2295,
      "Ġcommand": 2296,
      "Ġpromise": 2297,
      "using": 2298,
      "ecting": 2299,
      "orge": 2300,
      "ris": 2301,
      "ipping": 2302,
      "Ġdog": 2303,
      "Ġwouldnt": 2304,
      "Ġanim": 2305,
      "aling": 2306,
      "Ġbathroom": 2307,
      "cho": 2308,
      "Ġweap": 2309,
      "Ġmurm": 2310,
      "Ġbull": 2311,
      "iam": 2312,
      "Ġfut": 2313,
      "Ġslam": 2314,
      "Ġchuck": 2315,
      "Ġplaying": 2316,
      "iliar": 2317,
      "Ġsuit": 2318,
      "Ġeyeb": 2319,
      "rac": 2320,
      "Ġworth": 2321,
      "Ġtruck": 2322,
      "Ġarrived": 2323,
      "Ġsurround": 2324,
      "Ġdar": 2325,
      "ics": 2326,
      "Ġsigh": 2327,
      "Ġtoss": 2328,
      "Ġrelax": 2329,
      "Ġtrans": 2330,
      "ousand": 2331,
      "Ġsharp": 2332,
      "Ġmill": 2333,
      "Ġmain": 2334,
      "ooking": 2335,
      "Ġchoice": 2336,
      "Ġband": 2337,
      "roll": 2338,
      "Ġattem": 2339,
      "Ġhey": 2340,
      "Ġund": 2341,
      "Ġlap": 2342,
      "Ġhate": 2343,
      "Ġvan": 2344,
      "Ġchin": 2345,
      "Ġpleasure": 2346,
      "Ġgrinned": 2347,
      "Ġsmiling": 2348,
      "Ġdefin": 2349,
      "Ġpartic": 2350,
      "Ġtakes": 2351,
      "Ġsituation": 2352,
      "Ġrequ": 2353,
      "ager": 2354,
      "Ġmel": 2355,
      "Ġstren": 2356,
      "Ġenc": 2357,
      "Ġmass": 2358,
      "igg": 2359,
      "Ġcup": 2360,
      "while": 2361,
      "Ġbow": 2362,
      "Ġshaking": 2363,
      "Ġdesper": 2364,
      "aked": 2365,
      "Ġpun": 2366,
      "Ġhorse": 2367,
      "before": 2368,
      "Ġasking": 2369,
      "Ġslipped": 2370,
      "idence": 2371,
      "ishing": 2372,
      "erm": 2373,
      "tering": 2374,
      "Ġant": 2375,
      "Ġspir": 2376,
      "mer": 2377,
      "Ġamaz": 2378,
      "aste": 2379,
      "Ġthemselves": 2380,
      "kes": 2381,
      "Ġreve": 2382,
      "Ġmusic": 2383,
      "Ġtot": 2384,
      "Ġval": 2385,
      "ressed": 2386,
      "Ġhoped": 2387,
      "Ġcamp": 2388,
      "Ġsomehow": 2389,
      "Ġearlier": 2390,
      "reen": 2391,
      "Ġconst": 2392,
      "Ġrepe": 2393,
      "Ġcrossed": 2394,
      "ote": 2395,
      "Ġsave": 2396,
      "Ġthin": 2397,
      "Ġlived": 2398,
      "Ġshowed": 2399,
      "Ġsnapped": 2400,
      "sts": 2401,
      "Ġcheeks": 2402,
      "Ġnone": 2403,
      "ancing": 2404,
      "Ġdef": 2405,
      "Ġshall": 2406,
      "Ġpicture": 2407,
      "Ġdry": 2408,
      "Ġbelow": 2409,
      "Ġlisten": 2410,
      "ucked": 2411,
      "Ġinvol": 2412,
      "Ġsar": 2413,
      "Ġthousand": 2414,
      "col": 2415,
      "bes": 2416,
      "Ġgrew": 2417,
      "aul": 2418,
      "Ġgentle": 2419,
      "Ġincl": 2420,
      "Ġshed": 2421,
      "Ġjumped": 2422,
      "Ġeyebrow": 2423,
      "Ġbal": 2424,
      "only": 2425,
      "ative": 2426,
      "Ġmid": 2427,
      "Ġkeeping": 2428,
      "Ġsoul": 2429,
      "Ġletting": 2430,
      "Ġtalked": 2431,
      "Ġnormal": 2432,
      "Ġvisit": 2433,
      "Ġfavor": 2434,
      "Ġexplain": 2435,
      "Ġlocked": 2436,
      "era": 2437,
      "rit": 2438,
      "from": 2439,
      "Ġrealize": 2440,
      "Ġnotice": 2441,
      "og": 2442,
      "men": 2443,
      "Ġdressed": 2444,
      "Ġlose": 2445,
      "Ġsurv": 2446,
      "Ġwip": 2447,
      "Ġlives": 2448,
      "pite": 2449,
      "Ġwore": 2450,
      "good": 2451,
      "uct": 2452,
      "Ġweight": 2453,
      "Ġglance": 2454,
      "Ġsend": 2455,
      "shes": 2456,
      "Ġpound": 2457,
      "Ġflat": 2458,
      "Ġcru": 2459,
      "Ġoffered": 2460,
      "Ġodd": 2461,
      "Ġmrs": 2462,
      "Ġvi": 2463,
      "Ġhoping": 2464,
      "ges": 2465,
      "Ġhosp": 2466,
      "Ġice": 2467,
      "Ġbell": 2468,
      "miss": 2469,
      "Ġfrowned": 2470,
      "Ġbattle": 2471,
      "Ġsnow": 2472,
      "Ġwhether": 2473,
      "Ġavo": 2474,
      "Ġlights": 2475,
      "Ġhelped": 2476,
      "Ġfold": 2477,
      "Ġrelation": 2478,
      "Ġears": 2479,
      "Ġclou": 2480,
      "ott": 2481,
      "will": 2482,
      "fied": 2483,
      "Ġassum": 2484,
      "Ġcarefully": 2485,
      "Ġespecially": 2486,
      "arm": 2487,
      "Ġbeginning": 2488,
      "Ġbreathing": 2489,
      "Ġcompany": 2490,
      "Ġstrength": 2491,
      "Ġta": 2492,
      "Ġhanded": 2493,
      "noon": 2494,
      "res": 2495,
      "Ġevent": 2496,
      "Ġqueen": 2497,
      "Ġexplo": 2498,
      "Ġlaughing": 2499,
      "nothing": 2500,
      "Ġpot": 2501,
      "zen": 2502,
      "ault": 2503,
      "Ġfix": 2504,
      "two": 2505,
      "Ġcenter": 2506,
      "Ġhonest": 2507,
      "Ġstayed": 2508,
      "Ġpair": 2509,
      "Ġclearly": 2510,
      "asing": 2511,
      "Ġlad": 2512,
      "Ġage": 2513,
      "owers": 2514,
      "Ġitself": 2515,
      "Ġdisco": 2516,
      "Ġteam": 2517,
      "Ġriver": 2518,
      "Ġash": 2519,
      "Ġcounter": 2520,
      "po": 2521,
      "Ġmarried": 2522,
      "rian": 2523,
      "Ġforehead": 2524,
      "Ġhandle": 2525,
      "Ġphot": 2526,
      "Ġimagine": 2527,
      "Ġwolf": 2528,
      "Ġeasily": 2529,
      "Ġmuttered": 2530,
      "Ġfail": 2531,
      "Ġentered": 2532,
      "Ġdeser": 2533,
      "Ġwhisper": 2534,
      "Ġener": 2535,
      "Ġneeds": 2536,
      "Ġbas": 2537,
      "ract": 2538,
      "Ġspecial": 2539,
      "Ġremained": 2540,
      "Ġfuture": 2541,
      "Ġge": 2542,
      "idge": 2543,
      "Ġproper": 2544,
      "youre": 2545,
      "Ġdemon": 2546,
      "Ġver": 2547,
      "Ġbrain": 2548,
      "Ġeffort": 2549,
      "Ġmotion": 2550,
      "Ġalthough": 2551,
      "Ġcolor": 2552,
      "Ġscared": 2553,
      "Ġpill": 2554,
      "Ġappear": 2555,
      "Ġfresh": 2556,
      "Ġgest": 2557,
      "Ġcertainly": 2558,
      "Ġtrack": 2559,
      "ses": 2560,
      "Ġfirm": 2561,
      "Ġsuper": 2562,
      "Ġflesh": 2563,
      "Ġsilver": 2564,
      "Ġallowed": 2565,
      "Ġdoctor": 2566,
      "Ġlower": 2567,
      "yle": 2568,
      "idden": 2569,
      "please": 2570,
      "Ġmissed": 2571,
      "Ġafternoon": 2572,
      "Ġstore": 2573,
      "Ġhospital": 2574,
      "ural": 2575,
      "ucking": 2576,
      "Ġfuck": 2577,
      "Ġshoot": 2578,
      "Ġusing": 2579,
      "Ġcouch": 2580,
      "Ġfield": 2581,
      "Ġamong": 2582,
      "Ġfamiliar": 2583,
      "Ġkey": 2584,
      "Ġship": 2585,
      "Ġhowever": 2586,
      "still": 2587,
      "Ġrad": 2588,
      "Ġgets": 2589,
      "Ġsimple": 2590,
      "ises": 2591,
      "Ġdiffic": 2592,
      "ues": 2593,
      "Ġgon": 2594,
      "uly": 2595,
      "Ġaware": 2596,
      "val": 2597,
      "Ġmemory": 2598,
      "said": 2599,
      "Ġnote": 2600,
      "tend": 2601,
      "Ġcried": 2602,
      "gin": 2603,
      "que": 2604,
      "Ġmoon": 2605,
      "Ġlen": 2606,
      "instead": 2607,
      "illed": 2608,
      "jack": 2609,
      "Ġpush": 2610,
      "ries": 2611,
      "Ġhadnt": 2612,
      "ron": 2613,
      "Ġbod": 2614,
      "gar": 2615,
      "ession": 2616,
      "Ġpresent": 2617,
      "Ġjeans": 2618,
      "Ġforever": 2619,
      "Ġwilling": 2620,
      "Ġolder": 2621,
      "Ġtun": 2622,
      "Ġpersonal": 2623,
      "Ġcand": 2624,
      "Ġhill": 2625,
      "Ġknife": 2626,
      "Ġwel": 2627,
      "Ġpin": 2628,
      "Ġthigh": 2629,
      "Ġglo": 2630,
      "udd": 2631,
      "arently": 2632,
      "Ġfighting": 2633,
      "Ġshouted": 2634,
      "ayed": 2635,
      "Ġappre": 2636,
      "Ġfalling": 2637,
      "alth": 2638,
      "Ġnick": 2639,
      "Ġscar": 2640,
      "Ġarg": 2641,
      "izing": 2642,
      "Ġspo": 2643,
      "line": 2644,
      "Ġcourt": 2645,
      "Ġsurf": 2646,
      "ring": 2647,
      "inct": 2648,
      "Ġequ": 2649,
      "Ġstick": 2650,
      "Ġcrack": 2651,
      "okay": 2652,
      "Ġshadow": 2653,
      "Ġpop": 2654,
      "cri": 2655,
      "Ġdefinitely": 2656,
      "Ġgrace": 2657,
      "hell": 2658,
      "bel": 2659,
      "Ġshower": 2660,
      "pper": 2661,
      "usion": 2662,
      "lin": 2663,
      "Ġdrove": 2664,
      "par": 2665,
      "Ġexplained": 2666,
      "Ġusually": 2667,
      "Ġdrop": 2668,
      "oned": 2669,
      "Ġbottle": 2670,
      "Ġdesire": 2671,
      "Ġaside": 2672,
      "amb": 2673,
      "Ġparticular": 2674,
      "leep": 2675,
      "Ġobviously": 2676,
      "Ġjud": 2677,
      "Ġtest": 2678,
      "Ġlearned": 2679,
      "00": 2680,
      "Ġpale": 2681,
      "stairs": 2682,
      "rod": 2683,
      "olute": 2684,
      "mr": 2685,
      "Ġdangerous": 2686,
      "Ġfem": 2687,
      "Ġride": 2688,
      "Ġtreat": 2689,
      "Ġfa": 2690,
      "bert": 2691,
      "inked": 2692,
      "Ġhat": 2693,
      "Ġcaptain": 2694,
      "Ġdiscus": 2695,
      "Ġphys": 2696,
      "Ġsettled": 2697,
      "ived": 2698,
      "ichael": 2699,
      "Ġclub": 2700,
      "Ġdim": 2701,
      "had": 2702,
      "ives": 2703,
      "Ġcontact": 2704,
      "Ġemotion": 2705,
      "Ġstuck": 2706,
      "Ġpark": 2707,
      "ustr": 2708,
      "Ġmot": 2709,
      "time": 2710,
      "thank": 2711,
      "Ġfocus": 2712,
      "Ġbusy": 2713,
      "Ġlock": 2714,
      "Ġdate": 2715,
      "ils": 2716,
      "Ġenergy": 2717,
      "Ġport": 2718,
      "Ġwanting": 2719,
      "Ġgoes": 2720,
      "Ġhated": 2721,
      "pet": 2722,
      "Ġmoments": 2723,
      "Ġshock": 2724,
      "Ġcarried": 2725,
      "Ġmetal": 2726,
      "Ġdoesnt": 2727,
      "ulous": 2728,
      "Ġsweat": 2729,
      "ded": 2730,
      "Ġprov": 2731,
      "Ġlevel": 2732,
      "Ġlikely": 2733,
      "Ġfollowing": 2734,
      "elle": 2735,
      "Ġry": 2736,
      "Ġwondering": 2737,
      "Ġtar": 2738,
      "Ġsea": 2739,
      "Ġended": 2740,
      "Ġfil": 2741,
      "Ġshake": 2742,
      "Ġcountry": 2743,
      "Ġfool": 2744,
      "lan": 2745,
      "Ġmaster": 2746,
      "astic": 2747,
      "Ġputting": 2748,
      "Ġclaim": 2749,
      "Ġasks": 2750,
      "Ġnoise": 2751,
      "alk": 2752,
      "Ġscreamed": 2753,
      "Ġhanging": 2754,
      "Ġwrit": 2755,
      "Ġwine": 2756,
      "Ġscent": 2757,
      "Ġpants": 2758,
      "Ġblond": 2759,
      "ashing": 2760,
      "Ġcalling": 2761,
      "Ġspend": 2762,
      "Ġshare": 2763,
      "cher": 2764,
      "iers": 2765,
      "Ġknee": 2766,
      "Ġdisappeared": 2767,
      "Ġvill": 2768,
      "Ġrelationship": 2769,
      "ball": 2770,
      "Ġmirror": 2771,
      "Ġdear": 2772,
      "Ġpor": 2773,
      "hen": 2774,
      "Ġturns": 2775,
      "Ġstarting": 2776,
      "Ġmax": 2777,
      "Ġrece": 2778,
      "dont": 2779,
      "anda": 2780,
      "die": 2781,
      "vern": 2782,
      "Ġthird": 2783,
      "Ġunderstood": 2784,
      "Ġhips": 2785,
      "Ġhea": 2786,
      "aff": 2787,
      "Ġwear": 2788,
      "Ġfigured": 2789,
      "asm": 2790,
      "onse": 2791,
      "Ġburst": 2792,
      "Ġdestro": 2793,
      "car": 2794,
      "Ġlaid": 2795,
      "Ġwont": 2796,
      "Ġwindows": 2797,
      "Ġlearn": 2798,
      "ca": 2799,
      "velo": 2800,
      "Ġpubl": 2801,
      "Ġdance": 2802,
      "Ġopening": 2803,
      "usted": 2804,
      "Ġescape": 2805,
      "Ġbelong": 2806,
      "Ġell": 2807,
      "Ġmissing": 2808,
      "ob": 2809,
      "Ġjump": 2810,
      "Ġexam": 2811,
      "avid": 2812,
      "Ġspeed": 2813,
      "Ġbent": 2814,
      "Ġlab": 2815,
      "Ġpi": 2816,
      "Ġgrip": 2817,
      "unity": 2818,
      "vie": 2819,
      "Ġoffer": 2820,
      "Ġprop": 2821,
      "rupt": 2822,
      "Ġwit": 2823,
      "fast": 2824,
      "perhaps": 2825,
      "Ġdifficult": 2826,
      "Ġrelief": 2827,
      "Ġthumb": 2828,
      "oss": 2829,
      "Ġapolo": 2830,
      "Ġpeace": 2831,
      "Ġhappening": 2832,
      "Ġsong": 2833,
      "omb": 2834,
      "Ġtaste": 2835,
      "sidered": 2836,
      "Ġsleeping": 2837,
      "Ġdeterm": 2838,
      "anna": 2839,
      "anted": 2840,
      "Ġthirty": 2841,
      "Ġbooks": 2842,
      "Ġjen": 2843,
      "Ġsummer": 2844,
      "Ġcard": 2845,
      "Ġplaces": 2846,
      "ians": 2847,
      "Ġmurmured": 2848,
      "Ġharder": 2849,
      "rel": 2850,
      "den": 2851,
      "rance": 2852,
      "Ġusual": 2853,
      "acy": 2854,
      "Ġways": 2855,
      "ading": 2856,
      "Ġpowerful": 2857,
      "Ġhotel": 2858,
      "illy": 2859,
      "Ġgrim": 2860,
      "Ġpink": 2861,
      "sion": 2862,
      "ope": 2863,
      "rass": 2864,
      "Ġmaj": 2865,
      "Ġtruly": 2866,
      "Ġsen": 2867,
      "Ġstudy": 2868,
      "Ġleather": 2869,
      "Ġshop": 2870,
      "tr": 2871,
      "Ġresponse": 2872,
      "Ġremo": 2873,
      "their": 2874,
      "Ġasleep": 2875,
      "oming": 2876,
      "look": 2877,
      "urity": 2878,
      "Ġhorri": 2879,
      "inting": 2880,
      "Ġconsidered": 2881,
      "Ġwid": 2882,
      "Ġshifted": 2883,
      "Ġviol": 2884,
      "Ġbodies": 2885,
      "Ġwake": 2886,
      "attered": 2887,
      "Ġfeelings": 2888,
      "Ġhen": 2889,
      "under": 2890,
      "rem": 2891,
      "barrass": 2892,
      "Ġdon": 2893,
      "Ġyours": 2894,
      "Ġhist": 2895,
      "urch": 2896,
      "looking": 2897,
      "Ġsuppose": 2898,
      "ified": 2899,
      "Ġreading": 2900,
      "ective": 2901,
      "Ġpoor": 2902,
      "Ġimposs": 2903,
      "Ġhallway": 2904,
      "Ġive": 2905,
      "asked": 2906,
      "Ġcareful": 2907,
      "ald": 2908,
      "Ġtele": 2909,
      "iot": 2910,
      "gen": 2911,
      "Ġbother": 2912,
      "would": 2913,
      "Ġwaved": 2914,
      "Ġdom": 2915,
      "Ġswallowed": 2916,
      "Ġjames": 2917,
      "Ġbeer": 2918,
      "Ġappreci": 2919,
      "Ġut": 2920,
      "Ġtear": 2921,
      "Ġtwisted": 2922,
      "ledge": 2923,
      "ston": 2924,
      "Ġgrowing": 2925,
      "dam": 2926,
      "Ġnorth": 2927,
      "bing": 2928,
      "Ġpul": 2929,
      "Ġcraw": 2930,
      "Ġobvious": 2931,
      "des": 2932,
      "Ġpurp": 2933,
      "Ġdust": 2934,
      "Ġlunch": 2935,
      "Ġrough": 2936,
      "Ġblind": 2937,
      "Ġguards": 2938,
      "Ġsmoke": 2939,
      "Ġdig": 2940,
      "bby": 2941,
      "Ġisland": 2942,
      "Ġbirth": 2943,
      "Ġclen": 2944,
      "Ġgrab": 2945,
      "asted": 2946,
      "Ġdefe": 2947,
      "Ġspeaking": 2948,
      "Ġforth": 2949,
      "ett": 2950,
      "Ġ3": 2951,
      "see": 2952,
      "Ġtrip": 2953,
      "Ġpresence": 2954,
      "atic": 2955,
      "Ġflash": 2956,
      "Ġcolle": 2957,
      "ai": 2958,
      "Ġfinal": 2959,
      "riage": 2960,
      "Ġmiles": 2961,
      "Ġabsolute": 2962,
      "lyn": 2963,
      "Ġenem": 2964,
      "Ġnod": 2965,
      "Ġmessage": 2966,
      "Ġembarrass": 2967,
      "Ġinde": 2968,
      "Ġyelled": 2969,
      "Ġpiss": 2970,
      "Ġreminded": 2971,
      "Ġprin": 2972,
      "icious": 2973,
      "Ġfort": 2974,
      "ury": 2975,
      "Ġwave": 2976,
      "Ġaccept": 2977,
      "Ġjam": 2978,
      "aire": 2979,
      "ern": 2980,
      "Ġforest": 2981,
      "aur": 2982,
      "Ġstation": 2983,
      "Ġbelieved": 2984,
      "Ġsmooth": 2985,
      "Ġenjoy": 2986,
      "Ġdru": 2987,
      "Ġdoll": 2988,
      "Ġscreen": 2989,
      "Ġconsider": 2990,
      "Ġconfused": 2991,
      "ander": 2992,
      "Ġhy": 2993,
      "Ġanywhere": 2994,
      "Ġuncle": 2995,
      "yer": 2996,
      "Ġinf": 2997,
      "Ġweird": 2998,
      "Ġexperience": 2999,
      "Ġfallen": 3000,
      "Ġsucc": 3001,
      "Ġrom": 3002,
      "Ġsatis": 3003,
      "athan": 3004,
      "Ġsuff": 3005,
      "Ġplayed": 3006,
      "Ġjon": 3007,
      "Ġbear": 3008,
      "Ġseven": 3009,
      "Ġgard": 3010,
      "ena": 3011,
      "Ġecho": 3012,
      "Ġburning": 3013,
      "Ġshoes": 3014,
      "Ġstee": 3015,
      "finally": 3016,
      "Ġpalm": 3017,
      "Ġbast": 3018,
      "eric": 3019,
      "ounced": 3020,
      "Ġgift": 3021,
      "Ġemer": 3022,
      "Ġcabin": 3023,
      "Ġimm": 3024,
      "asion": 3025,
      "Ġchurch": 3026,
      "Ġvar": 3027,
      "Ġpushing": 3028,
      "Ġapproached": 3029,
      "rage": 3030,
      "Ġburned": 3031,
      "Ġprivate": 3032,
      "Ġwished": 3033,
      "ooked": 3034,
      "oose": 3035,
      "Ġest": 3036,
      "Ġblinked": 3037,
      "anny": 3038,
      "yn": 3039,
      "Ġhol": 3040,
      "fortun": 3041,
      "Ġfunny": 3042,
      "Ġlistening": 3043,
      "Ġarr": 3044,
      "Ġmere": 3045,
      "ners": 3046,
      "Ġfinding": 3047,
      "oc": 3048,
      "Ġsoc": 3049,
      "Ġnecess": 3050,
      "rid": 3051,
      "Ġevil": 3052,
      "Ġgrass": 3053,
      "itive": 3054,
      "Ġpost": 3055,
      "which": 3056,
      "gl": 3057,
      "Ġspell": 3058,
      "Ġclimbed": 3059,
      "omed": 3060,
      "Ġsouth": 3061,
      "Ġgho": 3062,
      "Ġdoorway": 3063,
      "Ġsides": 3064,
      "Ġfeels": 3065,
      "Ġrubbed": 3066,
      "Ġjacket": 3067,
      "Ġextra": 3068,
      "Ġfinish": 3069,
      "mit": 3070,
      "oured": 3071,
      "ella": 3072,
      "ution": 3073,
      "Ġthrust": 3074,
      "Ġaud": 3075,
      "Ġloose": 3076,
      "Ġdirectly": 3077,
      "Ġoppos": 3078,
      "Ġcrying": 3079,
      "Ġfaces": 3080,
      "Ġrepeated": 3081,
      "another": 3082,
      "athered": 3083,
      "roud": 3084,
      "issa": 3085,
      "bor": 3086,
      "dom": 3087,
      "Ġallow": 3088,
      "wise": 3089,
      "Ġarmy": 3090,
      "Ġcoat": 3091,
      "yal": 3092,
      "god": 3093,
      "Ġcorre": 3094,
      "Ġhidden": 3095,
      "Ġconv": 3096,
      "acher": 3097,
      "hood": 3098,
      "Ġtrail": 3099,
      "Ġbuy": 3100,
      "Ġlucky": 3101,
      "Ġdu": 3102,
      "Ġfought": 3103,
      "Ġsecurity": 3104,
      "ades": 3105,
      "Ġcu": 3106,
      "Ġtrick": 3107,
      "Ġshadows": 3108,
      "Ġpant": 3109,
      "icated": 3110,
      "inging": 3111,
      "Ġcock": 3112,
      "Ġjoin": 3113,
      "eces": 3114,
      "Ġvision": 3115,
      "Ġdiv": 3116,
      "Ġprod": 3117,
      "Ġentrance": 3118,
      "Ġtip": 3119,
      "Ġvol": 3120,
      "Ġdriving": 3121,
      "Ġbite": 3122,
      "Ġbrothers": 3123,
      "work": 3124,
      "Ġmal": 3125,
      "Ġhole": 3126,
      "back": 3127,
      "Ġinvest": 3128,
      "board": 3129,
      "anging": 3130,
      "aniel": 3131,
      "Ġcomput": 3132,
      "Ġshoved": 3133,
      "ork": 3134,
      "Ġinterested": 3135,
      "Ġclut": 3136,
      "imp": 3137,
      "ety": 3138,
      "Ġfaint": 3139,
      "Ġneither": 3140,
      "Ġagree": 3141,
      "Ġsurface": 3142,
      "Ġinvolved": 3143,
      "Ġamazing": 3144,
      "ait": 3145,
      "izz": 3146,
      "und": 3147,
      "Ġig": 3148,
      "Ġlowered": 3149,
      "stem": 3150,
      "Ġgate": 3151,
      "off": 3152,
      "Ġimpossible": 3153,
      "Ġtossed": 3154,
      "Ġwedding": 3155,
      "lish": 3156,
      "Ġelb": 3157,
      "Ġdisc": 3158,
      "friend": 3159,
      "Ġnur": 3160,
      "het": 3161,
      "Ġaccom": 3162,
      "Ġbase": 3163,
      "Ġaunt": 3164,
      "Ġmatt": 3165,
      "Ġprison": 3166,
      "Ġbuck": 3167,
      "Ġmary": 3168,
      "eding": 3169,
      "Ġfrustr": 3170,
      "Ġneigh": 3171,
      "Ġcass": 3172,
      "Ġrap": 3173,
      "Ġinclud": 3174,
      "Ġjour": 3175,
      "Ġhardly": 3176,
      "Ġbeast": 3177,
      "Ġperfectly": 3178,
      "Ġboard": 3179,
      "everything": 3180,
      "mas": 3181,
      "view": 3182,
      "Ġlaught": 3183,
      "Ġangel": 3184,
      "Ġjake": 3185,
      "Ġlang": 3186,
      "Ġprocess": 3187,
      "Ġlaughter": 3188,
      "ivers": 3189,
      "Ġrh": 3190,
      "Ġroof": 3191,
      "Ġcleared": 3192,
      "ests": 3193,
      "Ġsubject": 3194,
      "Ġvampires": 3195,
      "Ġmood": 3196,
      "Ġattempt": 3197,
      "bers": 3198,
      "Ġwheel": 3199,
      "ura": 3200,
      "Ġmort": 3201,
      "luc": 3202,
      "Ġinno": 3203,
      "Ġbrand": 3204,
      "Ġcontinue": 3205,
      "Ġcomfortable": 3206,
      "Ġfist": 3207,
      "allen": 3208,
      "Ġrul": 3209,
      "Ġpaid": 3210,
      "Ġlat": 3211,
      "Ġdecision": 3212,
      "Ġmach": 3213,
      "Ġordered": 3214,
      "cle": 3215,
      "Ġheads": 3216,
      "Ġbeach": 3217,
      "Ġslammed": 3218,
      "ague": 3219,
      "Ġwarri": 3220,
      "Ġment": 3221,
      "Ġmuscles": 3222,
      "Ġproud": 3223,
      "Ġforgotten": 3224,
      "Ġsystem": 3225,
      "Ġblow": 3226,
      "everyone": 3227,
      "ension": 3228,
      "nored": 3229,
      "Ġgab": 3230,
      "Ġleaning": 3231,
      "ama": 3232,
      "Ġrush": 3233,
      "cil": 3234,
      "Ġpit": 3235,
      "rick": 3236,
      "Ġuncom": 3237,
      "Ġgigg": 3238,
      "Ġgasped": 3239,
      "Ġgras": 3240,
      "essed": 3241,
      "Ġrespons": 3242,
      "Ġbreakfast": 3243,
      "Ġchecked": 3244,
      "Ġtotally": 3245,
      "kn": 3246,
      "Ġadam": 3247,
      "Ġcircle": 3248,
      "Ġstorm": 3249,
      "Ġlength": 3250,
      "Ġdisappo": 3251,
      "Ġlung": 3252,
      "Ġeffect": 3253,
      "Ġstream": 3254,
      "Ġfright": 3255,
      "Ġpurpose": 3256,
      "Ġacce": 3257,
      "Ġsqueezed": 3258,
      "Ġwest": 3259,
      "ibility": 3260,
      "Ġstruck": 3261,
      "sl": 3262,
      "Ġmale": 3263,
      "tended": 3264,
      "Ġbreast": 3265,
      "Ġstiff": 3266,
      "Ġincred": 3267,
      "were": 3268,
      "aret": 3269,
      "Ġbitch": 3270,
      "shirt": 3271,
      "Ġyellow": 3272,
      "Ġkicked": 3273,
      "Ġpromised": 3274,
      "uce": 3275,
      "top": 3276,
      "Ġseriously": 3277,
      "Ġregret": 3278,
      "Ġterrible": 3279,
      "kin": 3280,
      "Ġhumans": 3281,
      "Ġtremb": 3282,
      "Ġgut": 3283,
      "Ġupset": 3284,
      "irst": 3285,
      "Ġbreathe": 3286,
      "aming": 3287,
      "Ġignored": 3288,
      "ancy": 3289,
      "Ġcause": 3290,
      "Ġrefle": 3291,
      "Ġbrushed": 3292,
      "Ġexist": 3293,
      "Ġfaster": 3294,
      "asy": 3295,
      "Ġfoc": 3296,
      "Ġpublic": 3297,
      "Ġparking": 3298,
      "Ġscene": 3299,
      "Ġelect": 3300,
      "Ġaut": 3301,
      "Ġwoods": 3302,
      "Ġdriver": 3303,
      "Ġboat": 3304,
      "Ġdemanded": 3305,
      "Ġfully": 3306,
      "shit": 3307,
      "ias": 3308,
      "Ġswung": 3309,
      "Ġfat": 3310,
      "Ġflew": 3311,
      "iety": 3312,
      "Ġori": 3313,
      "Ġpool": 3314,
      "Ġfeat": 3315,
      "Ġpieces": 3316,
      "Ġexcited": 3317,
      "Ġspirit": 3318,
      "never": 3319,
      "Ġspark": 3320,
      "Ġgrey": 3321,
      "Ġpossibly": 3322,
      "Ġunless": 3323,
      "Ġsoldiers": 3324,
      "Ġimage": 3325,
      "Ġwarning": 3326,
      "Ġsize": 3327,
      "have": 3328,
      "Ġconcerned": 3329,
      "Ġbound": 3330,
      "bit": 3331,
      "sm": 3332,
      "Ġbutton": 3333,
      "Ġdreams": 3334,
      "ius": 3335,
      "inn": 3336,
      "Ġwrist": 3337,
      "Ġanno": 3338,
      "kend": 3339,
      "ium": 3340,
      "Ġfault": 3341,
      "Ġwooden": 3342,
      "Ġhiding": 3343,
      "Ġplate": 3344,
      "ored": 3345,
      "Ġheading": 3346,
      "Ġleaves": 3347,
      "Ġfocused": 3348,
      "Ġhors": 3349,
      "char": 3350,
      "ev": 3351,
      "Ġjoined": 3352,
      "ker": 3353,
      "Ġblade": 3354,
      "lock": 3355,
      "Ġmemories": 3356,
      "without": 3357,
      "pro": 3358,
      "iday": 3359,
      "Ġfer": 3360,
      "Ġchapter": 3361,
      "Ġrushed": 3362,
      "Ġrespect": 3363,
      "tell": 3364,
      "mother": 3365,
      "rap": 3366,
      "lessly": 3367,
      "Ġsepar": 3368,
      "Ġnumb": 3369,
      "Ġborn": 3370,
      "ables": 3371,
      "wards": 3372,
      "Ġsmart": 3373,
      "father": 3374,
      "Ġnon": 3375,
      "Ġanc": 3376,
      "Ġlines": 3377,
      "Ġboots": 3378,
      "Ġstretched": 3379,
      "Ġgeneral": 3380,
      "Ġslept": 3381,
      "Ġgreet": 3382,
      "Ġrese": 3383,
      "sam": 3384,
      "Ġtightly": 3385,
      "Ġceiling": 3386,
      "Ġhoney": 3387,
      "Ġkat": 3388,
      "Ġtea": 3389,
      "Ġblur": 3390,
      "house": 3391,
      "stand": 3392,
      "Ġnaked": 3393,
      "mon": 3394,
      "ham": 3395,
      "Ġreport": 3396,
      "Ġdragon": 3397,
      "Ġeventually": 3398,
      "over": 3399,
      "Ġtwice": 3400,
      "Ġmic": 3401,
      "Ġdescri": 3402,
      "Ġopposite": 3403,
      "Ġdespite": 3404,
      "Ġjes": 3405,
      "Ġhistory": 3406,
      "Ġflying": 3407,
      "Ġworst": 3408,
      "Ġtext": 3409,
      "Ġflu": 3410,
      "alex": 3411,
      "Ġlift": 3412,
      "ids": 3413,
      "ilar": 3414,
      "besides": 3415,
      "Ġbrow": 3416,
      "min": 3417,
      "step": 3418,
      "Ġscreaming": 3419,
      "case": 3420,
      "Ġopport": 3421,
      "Ġkilling": 3422,
      "racted": 3423,
      "uced": 3424,
      "Ġhearing": 3425,
      "Ġbloody": 3426,
      "Ġmostly": 3427,
      "Ġtent": 3428,
      "Ġcurt": 3429,
      "hold": 3430,
      "terday": 3431,
      "Ġlake": 3432,
      "those": 3433,
      "Ġisnt": 3434,
      "Ġwhose": 3435,
      "Ġcomb": 3436,
      "Ġsav": 3437,
      "Ġfren": 3438,
      "fo": 3439,
      "Ġplans": 3440,
      "Ġcollege": 3441,
      "Ġcurrent": 3442,
      "agged": 3443,
      "itting": 3444,
      "une": 3445,
      "Ġiron": 3446,
      "Ġcook": 3447,
      "Ġtrain": 3448,
      "Ġbroad": 3449,
      "Ġeating": 3450,
      "Ġauth": 3451,
      "centr": 3452,
      "ords": 3453,
      "Ġunable": 3454,
      "zing": 3455,
      "Ġsearch": 3456,
      "Ġrisk": 3457,
      "Ġdut": 3458,
      "Ġelev": 3459,
      "ism": 3460,
      "key": 3461,
      "ground": 3462,
      "Ġhorses": 3463,
      "Ġlistened": 3464,
      "Ġtick": 3465,
      "Ġcaused": 3466,
      "Ġcreature": 3467,
      "ensive": 3468,
      "Ġweapon": 3469,
      "Ġethan": 3470,
      "otions": 3471,
      "ivered": 3472,
      "eve": 3473,
      "hey": 3474,
      "Ġkick": 3475,
      "Ġrang": 3476,
      "someone": 3477,
      "Ġpray": 3478,
      "nday": 3479,
      "Ġdrunk": 3480,
      "Ġrum": 3481,
      "Ġsuggest": 3482,
      "Ġfrank": 3483,
      "Ġkissing": 3484,
      "antic": 3485,
      "Ġprepared": 3486,
      "Ġfavorite": 3487,
      "Ġpad": 3488,
      "Ġfemale": 3489,
      "Ġbuilt": 3490,
      "gre": 3491,
      "Ġwoke": 3492,
      "Ġtrave": 3493,
      "Ġrising": 3494,
      "ume": 3495,
      "Ġtype": 3496,
      "Ġhappens": 3497,
      "ral": 3498,
      "Ġsteady": 3499,
      "arily": 3500,
      "Ġshape": 3501,
      "liv": 3502,
      "icate": 3503,
      "Ġboss": 3504,
      "Ġsink": 3505,
      "Ġgods": 3506,
      "vis": 3507,
      "Ġ19": 3508,
      "Ġreleased": 3509,
      "Ġhungry": 3510,
      "gie": 3511,
      "Ġcomputer": 3512,
      "Ġaccident": 3513,
      "Ġmike": 3514,
      "uel": 3515,
      "wood": 3516,
      "Ġbelly": 3517,
      "Ġreaction": 3518,
      "Ġdirt": 3519,
      "since": 3520,
      "Ġopt": 3521,
      "Ġsupport": 3522,
      "Ġtouching": 3523,
      "Ġletter": 3524,
      "Ġunf": 3525,
      "annah": 3526,
      "Ġtil": 3527,
      "Ġshift": 3528,
      "Ġapparently": 3529,
      "Ġmovement": 3530,
      "Ġdecide": 3531,
      "Ġexha": 3532,
      "Ġwelcome": 3533,
      "por": 3534,
      "Ġclaw": 3535,
      "'s": 3536,
      "Ġow": 3537,
      "Ġwonderful": 3538,
      "Ġbought": 3539,
      "Ġbreaking": 3540,
      "Ġmix": 3541,
      "Ġinstantly": 3542,
      "Ġstage": 3543,
      "hu": 3544,
      "Ġknowledge": 3545,
      "Ġya": 3546,
      "itude": 3547,
      "Ġchallen": 3548,
      "Ġchuckled": 3549,
      "__": 3550,
      "Ġanx": 3551,
      "Ġcurled": 3552,
      "Ġwand": 3553,
      "Ġdeeper": 3554,
      "Ġmichael": 3555,
      "Ġhunter": 3556,
      "Ġye": 3557,
      "Ġeasier": 3558,
      "book": 3559,
      "ational": 3560,
      "Ġdirty": 3561,
      "Ġmistake": 3562,
      "Ġgolden": 3563,
      "Ġremoved": 3564,
      "Ġcoo": 3565,
      "ts": 3566,
      "Ġconcentr": 3567,
      "Ġmountain": 3568,
      "vy": 3569,
      "Ġinj": 3570,
      "Ġban": 3571,
      "although": 3572,
      "Ġjoy": 3573,
      "Ġconcern": 3574,
      "ole": 3575,
      "Ġuncomfort": 3576,
      "jul": 3577,
      "Ġinterru": 3578,
      "Ġrestaur": 3579,
      "Ġquar": 3580,
      "Ġshared": 3581,
      "Ġgrown": 3582,
      "Ġcomment": 3583,
      "Ġemotions": 3584,
      "Ġhesitated": 3585,
      "Ġcow": 3586,
      "nel": 3587,
      "Ġabsolutely": 3588,
      "Ġtravel": 3589,
      "Ġsuggested": 3590,
      "Ġpanic": 3591,
      "Ġjerked": 3592,
      "Ġrefused": 3593,
      "Ġthinks": 3594,
      "Ġah": 3595,
      "kward": 3596,
      "Ġstories": 3597,
      "Ġgrowled": 3598,
      "ously": 3599,
      "Ġgathered": 3600,
      "Ġfucking": 3601,
      "Ġstudied": 3602,
      "end": 3603,
      "Ġmarry": 3604,
      "riel": 3605,
      "Ġlocal": 3606,
      "Ġshudd": 3607,
      "agger": 3608,
      "Ġlosing": 3609,
      "Ġdavid": 3610,
      "Ġavoid": 3611,
      "ented": 3612,
      "Ġsquare": 3613,
      "Ġflashed": 3614,
      "Ġreply": 3615,
      "Ġknocked": 3616,
      "Ġanimal": 3617,
      "Ġpsy": 3618,
      "hand": 3619,
      "Ġarch": 3620,
      "Ġentirely": 3621,
      "Ġscrat": 3622,
      "Ġmac": 3623,
      "Ġdying": 3624,
      "Ġgroaned": 3625,
      "Ġrac": 3626,
      "Ġpregn": 3627,
      "these": 3628,
      "asc": 3629,
      "Ġgather": 3630,
      "lets": 3631,
      "Ġcust": 3632,
      "Ġyesterday": 3633,
      "Ġindeed": 3634,
      "Ġident": 3635,
      "Ġgodd": 3636,
      "Ġpeter": 3637,
      "Ġstaying": 3638,
      "Ġhig": 3639,
      "Ġoccasion": 3640,
      "formed": 3641,
      "Ġdeeply": 3642,
      "umbling": 3643,
      "Ġinteresting": 3644,
      "Ġnearby": 3645,
      "Ġeyebrows": 3646,
      "Ġheaven": 3647,
      "Ġlanded": 3648,
      "Ġmurder": 3649,
      "tense": 3650,
      "icle": 3651,
      "Ġobser": 3652,
      "Ġcarrying": 3653,
      "Ġsmiles": 3654,
      "Ġsaf": 3655,
      "Ġreaching": 3656,
      "Ġawkward": 3657,
      "Ġnarrowed": 3658,
      "omas": 3659,
      "Ġcost": 3660,
      "Ġju": 3661,
      "Ġexcuse": 3662,
      "Ġhug": 3663,
      "Ġplanned": 3664,
      "could": 3665,
      "Ġmyster": 3666,
      "Ġsucked": 3667,
      "pting": 3668,
      "claim": 3669,
      "Ġsexy": 3670,
      "Ġtour": 3671,
      "***": 3672,
      "Ġsmir": 3673,
      "Ġpier": 3674,
      "Ġflight": 3675,
      "Ġobject": 3676,
      "unted": 3677,
      "Ġbree": 3678,
      "Ġmart": 3679,
      "Ġsuccess": 3680,
      "Ġpictures": 3681,
      "iving": 3682,
      "Ġpleased": 3683,
      "Ġconvin": 3684,
      "Ġregard": 3685,
      "nat": 3686,
      "Ġsour": 3687,
      "Ġauthor": 3688,
      "Ġrecognized": 3689,
      "Ġsne": 3690,
      "Ġbreathed": 3691,
      "Ġdouble": 3692,
      "fortunately": 3693,
      "Ġlibr": 3694,
      "Ġbones": 3695,
      "nie": 3696,
      "Ġchristmas": 3697,
      "Ġfier": 3698,
      "Ġcig": 3699,
      "Ġrare": 3700,
      "Ġvictor": 3701,
      "Ġharm": 3702,
      "Ġinstant": 3703,
      "Ġbringing": 3704,
      "Ġshowing": 3705,
      "nes": 3706,
      "ray": 3707,
      "Ġgiant": 3708,
      "igned": 3709,
      "Ġamount": 3710,
      "Ġtightened": 3711,
      "Ġspun": 3712,
      "itched": 3713,
      "Ġamb": 3714,
      "Ġinstinct": 3715,
      "Ġstir": 3716,
      "Ġclenched": 3717,
      "Ġchick": 3718,
      "Ġbridge": 3719,
      "Ġburied": 3720,
      "raph": 3721,
      "Ġprince": 3722,
      "Ġshel": 3723,
      "Ġsof": 3724,
      "Ġshocked": 3725,
      "Ġimagined": 3726,
      "Ġcrew": 3727,
      "Ġstaff": 3728,
      "Ġdragged": 3729,
      "Ġbeauty": 3730,
      "Ġsearching": 3731,
      "Ġopportunity": 3732,
      "Ġhurried": 3733,
      "Ġdrif": 3734,
      "Ġcalls": 3735,
      "Ġinsp": 3736,
      "Ġsaved": 3737,
      "Ġengine": 3738,
      "Ġjew": 3739,
      "Ġbastard": 3740,
      "alled": 3741,
      "Ġrand": 3742,
      "sudden": 3743,
      "Ġsolid": 3744,
      "Ġknock": 3745,
      "Ġbutt": 3746,
      "Ġinh": 3747,
      "Ġuh": 3748,
      "Ġvillage": 3749,
      "Ġadmitted": 3750,
      "Ġscan": 3751,
      "Ġreality": 3752,
      "Ġpaul": 3753,
      "Ġshield": 3754,
      "Ġtech": 3755,
      "mp": 3756,
      "Ġanswers": 3757,
      "Ġapolog": 3758,
      "Ġwritten": 3759,
      "Ġjess": 3760,
      "Ġintrod": 3761,
      "Ġchase": 3762,
      "Ġcole": 3763,
      "Ġwarmth": 3764,
      "five": 3765,
      "Ġgives": 3766,
      "Ġprefer": 3767,
      "Ġscrew": 3768,
      "Ġtur": 3769,
      "bast": 3770,
      "reme": 3771,
      "idering": 3772,
      "Ġmovie": 3773,
      "Ġawake": 3774,
      "Ġstun": 3775,
      "Ġhelping": 3776,
      "Ġgarden": 3777,
      "Ġlack": 3778,
      "ios": 3779,
      "asons": 3780,
      "Ġcars": 3781,
      "both": 3782,
      "Ġinvestig": 3783,
      "however": 3784,
      "suddenly": 3785,
      "yet": 3786,
      "Ġnature": 3787,
      "uss": 3788,
      "ceed": 3789,
      "Ġexch": 3790,
      "Ġsending": 3791,
      "Ġremain": 3792,
      "Ġswear": 3793,
      "Ġmeaning": 3794,
      "Ġdrinking": 3795,
      "Ġthighs": 3796,
      "Ġslo": 3797,
      "Ġglasses": 3798,
      "Ġjason": 3799,
      "play": 3800,
      "Ġeager": 3801,
      "Ġvir": 3802,
      "Ġyork": 3803,
      "Ġyounger": 3804,
      "Ġrob": 3805,
      "isa": 3806,
      "Ġinstru": 3807,
      "Ġwings": 3808,
      "Ġghost": 3809,
      "Ġpure": 3810,
      "arch": 3811,
      "Ġglow": 3812,
      "ument": 3813,
      "Ġeverywhere": 3814,
      "Ġhi": 3815,
      "Ġx": 3816,
      "Ġtheres": 3817,
      "whate": 3818,
      "Ġspin": 3819,
      "Ġari": 3820,
      "Ġsan": 3821,
      "Ġdrawn": 3822,
      "Ġmentioned": 3823,
      "Ġassist": 3824,
      "Ġgle": 3825,
      "Ġnecessary": 3826,
      "Ġdesperate": 3827,
      "Ġaim": 3828,
      "Ġwiped": 3829,
      "Ġdare": 3830,
      "af": 3831,
      "Ġleading": 3832,
      "Ġdisappear": 3833,
      "whatever": 3834,
      "Ġfaded": 3835,
      "Ġjim": 3836,
      "Ġweekend": 3837,
      "Ġyan": 3838,
      "Ġrecord": 3839,
      "Ġbank": 3840,
      "Ġintense": 3841,
      "Ġholl": 3842,
      "Ġrow": 3843,
      "Ġaction": 3844,
      "Ġnine": 3845,
      "Ġbul": 3846,
      "Ġmatch": 3847,
      "Ġsac": 3848,
      "iculous": 3849,
      "Ġling": 3850,
      "eless": 3851,
      "Ġlangu": 3852,
      "Ġsurrounded": 3853,
      "Ġoccur": 3854,
      "itted": 3855,
      "Ġemma": 3856,
      "Ġmajor": 3857,
      "Ġnames": 3858,
      "Ġcommon": 3859,
      "Ġservice": 3860,
      "oe": 3861,
      "Ġlightly": 3862,
      "Ġfifteen": 3863,
      "aches": 3864,
      "lor": 3865,
      "Ġloss": 3866,
      "Ġstat": 3867,
      "itement": 3868,
      "Ġsarah": 3869,
      "Ġrout": 3870,
      "Ġchat": 3871,
      "Ġpulls": 3872,
      "aly": 3873,
      "Ġdiscovered": 3874,
      "Ġcharge": 3875,
      "Ġaccount": 3876,
      "Ġgrate": 3877,
      "Ġheels": 3878,
      "Ġank": 3879,
      "Ġkisses": 3880,
      "Ġorigin": 3881,
      "Ġrelaxed": 3882,
      "Ġrelie": 3883,
      "Ġsilently": 3884,
      "bye": 3885,
      "lfriend": 3886,
      "Ġwis": 3887,
      "Ġnatural": 3888,
      "Ġsha": 3889,
      "keep": 3890,
      "Ġ4": 3891,
      "Ġtv": 3892,
      "Ġslip": 3893,
      "Ġpassing": 3894,
      "port": 3895,
      "Ġboyfriend": 3896,
      "hol": 3897,
      "Ġmod": 3898,
      "ese": 3899,
      "oted": 3900,
      "Ġsoph": 3901,
      "Ġhost": 3902,
      "iment": 3903,
      "Ġinch": 3904,
      "Ġhenry": 3905,
      "Ġrolling": 3906,
      "Ġintim": 3907,
      "Ġcave": 3908,
      "Ġglared": 3909,
      "Ġprev": 3910,
      "Ġfolded": 3911,
      "Ġproblems": 3912,
      "Ġfol": 3913,
      "Ġhurry": 3914,
      "Ġskirt": 3915,
      "Ġpoured": 3916,
      "Ġbeth": 3917,
      "alous": 3918,
      "Ġrooms": 3919,
      "Ġblanket": 3920,
      "Ġpointing": 3921,
      "sometimes": 3922,
      "Ġleap": 3923,
      "Ġgovern": 3924,
      "sey": 3925,
      "Ġkeys": 3926,
      "Ġdetails": 3927,
      "Ġdetermined": 3928,
      "pes": 3929,
      "Ġbadly": 3930,
      "Ġsell": 3931,
      "Ġrub": 3932,
      "Ġenglish": 3933,
      "ples": 3934,
      "Ġtied": 3935,
      "ashes": 3936,
      "Ġshes": 3937,
      "raw": 3938,
      "Ġrested": 3939,
      "Ġrestaurant": 3940,
      "Ġblame": 3941,
      "Ġbelt": 3942,
      "Ġexperien": 3943,
      "Ġweapons": 3944,
      "Ġlets": 3945,
      "Ġporch": 3946,
      "three": 3947,
      "ique": 3948,
      "Ġhous": 3949,
      "Ġwaves": 3950,
      "Ġexpecting": 3951,
      "people": 3952,
      "Ġjoe": 3953,
      "mom": 3954,
      "Ġoper": 3955,
      "Ġplenty": 3956,
      "Ġwrite": 3957,
      "Ġpissed": 3958,
      "ille": 3959,
      "Ġtort": 3960,
      "Ġstreets": 3961,
      "Ġmarriage": 3962,
      "Ġhorror": 3963,
      "Ġpurse": 3964,
      "Ġexh": 3965,
      "Ġrise": 3966,
      "Ġmanage": 3967,
      "itor": 3968,
      "Ġeld": 3969,
      "Ġsteel": 3970,
      "Ġdepart": 3971,
      "ills": 3972,
      "again": 3973,
      "don": 3974,
      "Ġpause": 3975,
      "Ġameric": 3976,
      "Ġaband": 3977,
      "Ġly": 3978,
      "Ġwitch": 3979,
      "Ġdrawing": 3980,
      "Ġincre": 3981,
      "Ġexcitement": 3982,
      "Ġphysical": 3983,
      "Ġfish": 3984,
      "amber": 3985,
      "Ġwitness": 3986,
      "dr": 3987,
      "Ġcurious": 3988,
      "Ġresponded": 3989,
      "Ġresist": 3990,
      "Ġconc": 3991,
      "Ġmagn": 3992,
      "Ġcous": 3993,
      "Ġfal": 3994,
      "Ġcompan": 3995,
      "Ġtail": 3996,
      "Ġdisg": 3997,
      "Ġsliding": 3998,
      "Ġdeck": 3999,
      "Ġenemy": 4000,
      "Ġdozen": 4001,
      "oph": 4002,
      "Ġfailed": 4003,
      "iant": 4004,
      "Ġwhom": 4005,
      "neath": 4006,
      "Ġrear": 4007,
      "rop": 4008,
      "Ġnamed": 4009,
      "ette": 4010,
      "damn": 4011,
      "Ġinterrupted": 4012,
      "Ġfant": 4013,
      "Ġvoices": 4014,
      "yl": 4015,
      "Ġblock": 4016,
      "Ġignore": 4017,
      "Ġthrowing": 4018,
      "Ġancient": 4019,
      "iction": 4020,
      "har": 4021,
      "Ġrage": 4022,
      "Ġcastle": 4023,
      "Ġgall": 4024,
      "mel": 4025,
      "Ġworks": 4026,
      "Ġhealth": 4027,
      "Ġcharlie": 4028,
      "ires": 4029,
      "Ġnic": 4030,
      "ication": 4031,
      "Ġbecoming": 4032,
      "Ġtraining": 4033,
      "Ġsafety": 4034,
      "Ġflowers": 4035,
      "aging": 4036,
      "war": 4037,
      "Ġpressure": 4038,
      "Ġryan": 4039,
      "da": 4040,
      "Ġmate": 4041,
      "Ġenjoyed": 4042,
      "Ġfab": 4043,
      "elve": 4044,
      "Ġofficer": 4045,
      "Ġaid": 4046,
      "Ġthor": 4047,
      "Ġgirlfriend": 4048,
      "Ġability": 4049,
      "Ġmembers": 4050,
      "Ġconfir": 4051,
      "Ġian": 4052,
      "whats": 4053,
      "Ġtucked": 4054,
      "sor": 4055,
      "Ġfrench": 4056,
      "Ġwinter": 4057,
      "Ġbigger": 4058,
      "Ġhint": 4059,
      "abeth": 4060,
      "Ġkell": 4061,
      "gress": 4062,
      "nal": 4063,
      "Ġsmelled": 4064,
      "Ġsed": 4065,
      "Ġnowhere": 4066,
      "Ġfirmly": 4067,
      "Ġelevator": 4068,
      "Ġrev": 4069,
      "Ġlily": 4070,
      "Ġsetting": 4071,
      "Ġstars": 4072,
      "too": 4073,
      "ora": 4074,
      "bastian": 4075,
      "Ġpace": 4076,
      "Ġorders": 4077,
      "Ġenter": 4078,
      "Ġresult": 4079,
      "Ġfeatures": 4080,
      "ares": 4081,
      "Ġstruggled": 4082,
      "Ġfeed": 4083,
      "Ġpapers": 4084,
      "Ġnights": 4085,
      "Ġstarts": 4086,
      "Ġeast": 4087,
      "Ġpassion": 4088,
      "Ġstronger": 4089,
      "Ġfifty": 4090,
      "Ġlovely": 4091,
      "ality": 4092,
      "Ġgripped": 4093,
      "Ġplane": 4094,
      "Ġsin": 4095,
      "olves": 4096,
      "Ġknight": 4097,
      "Ġswept": 4098,
      "Ġwriting": 4099,
      "Ġrot": 4100,
      "Ġclosing": 4101,
      "ilities": 4102,
      "Ġuncomfortable": 4103,
      "Ġsque": 4104,
      "four": 4105,
      "Ġhello": 4106,
      "erial": 4107,
      "Ġgorge": 4108,
      "Ġtemper": 4109,
      "iana": 4110,
      "Ġhonor": 4111,
      "Ġprove": 4112,
      "Ġspoken": 4113,
      "Ġdawn": 4114,
      "Ġclock": 4115,
      "Ġate": 4116,
      "Ġdecl": 4117,
      "Ġupstairs": 4118,
      "rey": 4119,
      "Ġcared": 4120,
      "erson": 4121,
      "Ġdifference": 4122,
      "Ġtang": 4123,
      "Ġvac": 4124,
      "Ġsimilar": 4125,
      "uit": 4126,
      "vering": 4127,
      "Ġluke": 4128,
      "dding": 4129,
      "ature": 4130,
      "Ġridiculous": 4131,
      "itary": 4132,
      "Ġfac": 4133,
      "Ġconsidering": 4134,
      "asure": 4135,
      "intment": 4136,
      "Ġcorrect": 4137,
      "Ġparked": 4138,
      "Ġevidence": 4139,
      "je": 4140,
      "Ġembr": 4141,
      "Ġdeb": 4142,
      "Ġpractically": 4143,
      "Ġprincess": 4144,
      "got": 4145,
      "Ġrelease": 4146,
      "Ġcream": 4147,
      "Ġtex": 4148,
      "Ġfaced": 4149,
      "Ġinsisted": 4150,
      "Ġswim": 4151,
      "Ġliqu": 4152,
      "Ġgrad": 4153,
      "inary": 4154,
      "Ġpage": 4155,
      "Ġurge": 4156,
      "Ġvib": 4157,
      "Ġcreep": 4158,
      "Ġoce": 4159,
      "turn": 4160,
      "Ġpred": 4161,
      "john": 4162,
      "sec": 4163,
      "aning": 4164,
      "Ġreasons": 4165,
      "iently": 4166,
      "nick": 4167,
      "Ġpressing": 4168,
      "Ġflick": 4169,
      "Ġplanning": 4170,
      "Ġdisp": 4171,
      "Ġblew": 4172,
      "loy": 4173,
      "icip": 4174,
      "Ġgrave": 4175,
      "Ġbriefly": 4176,
      "Ġgeorge": 4177,
      "aper": 4178,
      "Ġpsych": 4179,
      "Ġbuzz": 4180,
      "Ġhuh": 4181,
      "Ġveh": 4182,
      "ival": 4183,
      "Ġripped": 4184,
      "Ġslide": 4185,
      "theres": 4186,
      "ita": 4187,
      "inc": 4188,
      "Ġirrit": 4189,
      "Ġcamera": 4190,
      "Ġparts": 4191,
      "Ġhandsome": 4192,
      "Ġphil": 4193,
      "ki": 4194,
      "Ġcash": 4195,
      "rett": 4196,
      "Ġchoose": 4197,
      "Ġspring": 4198,
      "Ġmassive": 4199,
      "Ġextreme": 4200,
      "ka": 4201,
      "Ġnobody": 4202,
      "Ġorgan": 4203,
      "Ġscow": 4204,
      "Ġlibrary": 4205,
      "izabeth": 4206,
      "acks": 4207,
      "Ġhigher": 4208,
      "Ġflood": 4209,
      "Ġlog": 4210,
      "Ġbrush": 4211,
      "thanks": 4212,
      "Ġplain": 4213,
      "ira": 4214,
      "Ġplastic": 4215,
      "Ġrachel": 4216,
      "Ġdancing": 4217,
      "Ġdi": 4218,
      "aine": 4219,
      "vision": 4220,
      "Ġsatisf": 4221,
      "Ġcustom": 4222,
      "Ġmaterial": 4223,
      "Ġunderneath": 4224,
      "antage": 4225,
      "Ġmission": 4226,
      "Ġotherwise": 4227,
      "Ġprec": 4228,
      "whel": 4229,
      "Ġheavily": 4230,
      "Ġscra": 4231,
      "Ġcigaret": 4232,
      "first": 4233,
      "Ġfacing": 4234,
      "Ġmeal": 4235,
      "Ġsniff": 4236,
      "Ġupper": 4237,
      "Ġtan": 4238,
      "Ġjealous": 4239,
      "Ġaddress": 4240,
      "Ġcorrid": 4241,
      "Ġmillion": 4242,
      "Ġwilliam": 4243,
      "rog": 4244,
      "Ġmerely": 4245,
      "Ġteacher": 4246,
      "Ġ5": 4247,
      "Ġfaith": 4248,
      "Ġdomin": 4249,
      "Ġtwist": 4250,
      "Ġfarm": 4251,
      "Ġtwelve": 4252,
      "ante": 4253,
      "Ġflames": 4254,
      "Ġward": 4255,
      "Ġlogan": 4256,
      "about": 4257,
      "Ġdun": 4258,
      "Ġguilt": 4259,
      "Ġmonster": 4260,
      "cr": 4261,
      "Ġweather": 4262,
      "Ġcloud": 4263,
      "Ġstab": 4264,
      "Ġhorrible": 4265,
      "Ġterror": 4266,
      "fuck": 4267,
      "isto": 4268,
      "Ġwidened": 4269,
      "Ġcart": 4270,
      "ounce": 4271,
      "Ġhugged": 4272,
      "Ġbitter": 4273,
      "lebr": 4274,
      "Ġcouncil": 4275,
      "Ġanticip": 4276,
      "exp": 4277,
      "Ġyard": 4278,
      "Ġren": 4279,
      "Ġadjust": 4280,
      "Ġbacked": 4281,
      "ify": 4282,
      "Ġstair": 4283,
      "Ġabrupt": 4284,
      "bre": 4285,
      "Ġassumed": 4286,
      "Ġtarget": 4287,
      "ashion": 4288,
      "Ġmeat": 4289,
      "Ġnightm": 4290,
      "idding": 4291,
      "Ġteen": 4292,
      "Ġevents": 4293,
      "Ġtit": 4294,
      "stal": 4295,
      "Ġvibr": 4296,
      "Ġtran": 4297,
      "Ġthrown": 4298,
      "Ġpregnant": 4299,
      "ye": 4300,
      "asha": 4301,
      "bet": 4302,
      "Ġinches": 4303,
      "Ġmachine": 4304,
      "apping": 4305,
      "Ġrelieved": 4306,
      "Ġrules": 4307,
      "Ġidiot": 4308,
      "Ġdoc": 4309,
      "ov": 4310,
      "Ġappreciate": 4311,
      "Ġpainting": 4312,
      "claimed": 4313,
      "Ġtowel": 4314,
      "Ġinnocent": 4315,
      "Ġutter": 4316,
      "Ġdelight": 4317,
      "Ġhip": 4318,
      "Ġincluding": 4319,
      "Ġconnection": 4320,
      "omes": 4321,
      "Ġtells": 4322,
      "sue": 4323,
      "Ġguns": 4324,
      "lot": 4325,
      "Ġmc": 4326,
      "tw": 4327,
      "Ġconvinced": 4328,
      "Ġpile": 4329,
      "Ġjamie": 4330,
      "Ġwarned": 4331,
      "icing": 4332,
      "Ġoverwhel": 4333,
      "Ġcelebr": 4334,
      "Ġdick": 4335,
      "Ġstranger": 4336,
      "Ġregular": 4337,
      "Ġforty": 4338,
      "Ġfed": 4339,
      "Ġcloset": 4340,
      "Ġcharac": 4341,
      "Ġstumbled": 4342,
      "Ġlone": 4343,
      "down": 4344,
      "Ġvictim": 4345,
      "Ġbone": 4346,
      "Ġframe": 4347,
      "vor": 4348,
      "Ġgorgeous": 4349,
      "Ġsnar": 4350,
      "Ġswir": 4351,
      "jam": 4352,
      "riff": 4353,
      "Ġrichard": 4354,
      "Ġtemple": 4355,
      "Ġsplit": 4356,
      "walk": 4357,
      "yr": 4358,
      "Ġken": 4359,
      "Ġpour": 4360,
      "Ġdeli": 4361,
      "Ġconfusion": 4362,
      "Ġease": 4363,
      "Ġcrap": 4364,
      "Ġcollap": 4365,
      "Ġreass": 4366,
      "Ġsank": 4367,
      "ato": 4368,
      "Ġcommun": 4369,
      "Ġrace": 4370,
      "dad": 4371,
      "Ġbird": 4372,
      "Ġflipped": 4373,
      "Ġdistant": 4374,
      "Ġtaught": 4375,
      "Ġjac": 4376,
      "Ġegg": 4377,
      "attoo": 4378,
      "Ġdread": 4379,
      "Ġkate": 4380,
      "Ġdevelo": 4381,
      "Ġloudly": 4382,
      "Ġresting": 4383,
      "uries": 4384,
      "Ġfroze": 4385,
      "Ġfixed": 4386,
      "idly": 4387,
      "Ġsurely": 4388,
      "ization": 4389,
      "Ġgrateful": 4390,
      "Ġtender": 4391,
      "gram": 4392,
      "Ġbay": 4393,
      "nds": 4394,
      "Ġdemons": 4395,
      "Ġrust": 4396,
      "Ġproject": 4397,
      "Ġtension": 4398,
      "Ġclouds": 4399,
      "elled": 4400,
      "Ġhamm": 4401,
      "Ġcheer": 4402,
      "Ġradio": 4403,
      "Ġcreatures": 4404,
      "Ġspine": 4405,
      "Ġrail": 4406,
      "Ġdug": 4407,
      "Ġanimals": 4408,
      "umps": 4409,
      "Ġsurvive": 4410,
      "Ġune": 4411,
      "take": 4412,
      "Ġocean": 4413,
      "Ġwash": 4414,
      "Ġaccepted": 4415,
      "pan": 4416,
      "enger": 4417,
      "Ġcreated": 4418,
      "Ġdamp": 4419,
      "Ġsoot": 4420,
      "Ġtie": 4421,
      "Ġsuck": 4422,
      "fit": 4423,
      "hal": 4424,
      "Ġbreeze": 4425,
      "Ġpillow": 4426,
      "mor": 4427,
      "Ġunderstanding": 4428,
      "Ġbeating": 4429,
      "Ġhood": 4430,
      "onscious": 4431,
      "Ġum": 4432,
      "Ġstartled": 4433,
      "Ġseth": 4434,
      "gest": 4435,
      "Ġrode": 4436,
      "iley": 4437,
      "Ġstrang": 4438,
      "does": 4439,
      "Ġpounding": 4440,
      "tending": 4441,
      "Ġlungs": 4442,
      "Ġyouve": 4443,
      "ddy": 4444,
      "Ġclothing": 4445,
      "Ġfurn": 4446,
      "Ġgrandmother": 4447,
      "Ġnods": 4448,
      "Ġheight": 4449,
      "acle": 4450,
      "Ġjoke": 4451,
      "Ġpip": 4452,
      "Ġtattoo": 4453,
      "Ġfists": 4454,
      "ential": 4455,
      "Ġrif": 4456,
      "wen": 4457,
      "Ġok": 4458,
      "pless": 4459,
      "Ġger": 4460,
      "cell": 4461,
      "Ġawful": 4462,
      "Ġshakes": 4463,
      "Ġstopping": 4464,
      "Ġdistur": 4465,
      "Ġpicking": 4466,
      "ppy": 4467,
      "Ġchris": 4468,
      "Ġchose": 4469,
      "Ġrocks": 4470,
      "ems": 4471,
      "Ġhero": 4472,
      "aker": 4473,
      "ference": 4474,
      "Ġbegun": 4475,
      "Ġjeff": 4476,
      "Ġsimon": 4477,
      "ores": 4478,
      "Ġbon": 4479,
      "ndon": 4480,
      "Ġray": 4481,
      "eral": 4482,
      "sal": 4483,
      "Ġresc": 4484,
      "Ġtorn": 4485,
      "Ġpeered": 4486,
      "Ġdaniel": 4487,
      "cass": 4488,
      "Ġmountains": 4489,
      "Ġcausing": 4490,
      "Ġpractice": 4491,
      "Ġlanguage": 4492,
      "Ġcha": 4493,
      "Ġshiver": 4494,
      "Ġtugged": 4495,
      "Ġleader": 4496,
      "Ġsisters": 4497,
      "Ġreceived": 4498,
      "umed": 4499,
      "Ġintended": 4500,
      "Ġbrad": 4501,
      "Ġstands": 4502,
      "Ġtilted": 4503,
      "Ġarrow": 4504,
      "ilty": 4505,
      "Ġpuzz": 4506,
      "eech": 4507,
      "Ġenjoying": 4508,
      "Ġorange": 4509,
      "Ġsettle": 4510,
      "boy": 4511,
      "Ġwaste": 4512,
      "Ġtunnel": 4513,
      "Ġflut": 4514,
      "coming": 4515,
      "phone": 4516,
      "Ġfreed": 4517,
      "Ġmap": 4518,
      "Ġpowers": 4519,
      "mat": 4520,
      "Ġhavent": 4521,
      "Ġworn": 4522,
      "Ġcaress": 4523,
      "Ġtrembling": 4524,
      "Ġcro": 4525,
      "Ġnotes": 4526,
      "Ġpretend": 4527,
      "itions": 4528,
      "Ġsake": 4529,
      "aks": 4530,
      "oll": 4531,
      "iven": 4532,
      "Ġdue": 4533,
      "Ġrecognize": 4534,
      "bur": 4535,
      "Ġsensation": 4536,
      "Ġreluct": 4537,
      "ption": 4538,
      "ales": 4539,
      "Ġrubbing": 4540,
      "illing": 4541,
      "Ġcracked": 4542,
      "Ġfired": 4543,
      "gers": 4544,
      "Ġven": 4545,
      "Ġfate": 4546,
      "Ġphotog": 4547,
      "Ġchairs": 4548,
      "Ġsus": 4549,
      "Ġting": 4550,
      "Ġsip": 4551,
      "Ġbunch": 4552,
      "place": 4553,
      "Ġladies": 4554,
      "Ġgesture": 4555,
      "Ġjan": 4556,
      "Ġvarious": 4557,
      "Ġcircum": 4558,
      "Ġni": 4559,
      "essor": 4560,
      "Ġbirthday": 4561,
      "Ġdogs": 4562,
      "Ġacting": 4563,
      "Ġelbow": 4564,
      "despite": 4565,
      "Ġsuspected": 4566,
      "Ġunif": 4567,
      "osen": 4568,
      "Ġclimb": 4569,
      "Ġwag": 4570,
      "each": 4571,
      "ases": 4572,
      "Ġescaped": 4573,
      "Ġwon": 4574,
      "Ġguilty": 4575,
      "Ġchain": 4576,
      "bell": 4577,
      "Ġpil": 4578,
      "Ġdownstairs": 4579,
      "Ġfierce": 4580,
      "Ġjared": 4581,
      "Ġbags": 4582,
      "oop": 4583,
      "asty": 4584,
      "Ġswift": 4585,
      "Ġsilk": 4586,
      "nor": 4587,
      "Ġack": 4588,
      "Ġwalks": 4589,
      "iest": 4590,
      "Ġpopped": 4591,
      "lit": 4592,
      "Ġsearched": 4593,
      "Ġintell": 4594,
      "Ġsmaller": 4595,
      "Ġbry": 4596,
      "Ġcred": 4597,
      "Ġemily": 4598,
      "Ġjourney": 4599,
      "Ġdaddy": 4600,
      "Ġspotted": 4601,
      "Ġcrim": 4602,
      "Ġfrozen": 4603,
      "Ġencou": 4604,
      "Ġskull": 4605,
      "Ġpride": 4606,
      "Ġpartner": 4607,
      "ym": 4608,
      "itation": 4609,
      "Ġharsh": 4610,
      "Ġwhenever": 4611,
      "Ġduty": 4612,
      "Ġale": 4613,
      "Ġaccess": 4614,
      "Ġjudge": 4615,
      "ences": 4616,
      "sorry": 4617,
      "Ġdesce": 4618,
      "Ġchew": 4619,
      "Ġhunt": 4620,
      "ben": 4621,
      "Ġdrifted": 4622,
      "Ġspar": 4623,
      "ception": 4624,
      "Ġdamage": 4625,
      "Ġdesperately": 4626,
      "Ġassured": 4627,
      "Ġdepe": 4628,
      "Ġactiv": 4629,
      "Ġintent": 4630,
      "Ġjosh": 4631,
      "heart": 4632,
      "Ġwrote": 4633,
      "blood": 4634,
      "Ġinfl": 4635,
      "Ġtore": 4636,
      "ulf": 4637,
      "Ġyoull": 4638,
      "Ġgreg": 4639,
      "ints": 4640,
      "Ġrobert": 4641,
      "ste": 4642,
      "****": 4643,
      "uts": 4644,
      "Ġsuspic": 4645,
      "Ġcontem": 4646,
      "lored": 4647,
      "len": 4648,
      "really": 4649,
      "Ġwerent": 4650,
      "Ġenvelo": 4651,
      "Ġgazed": 4652,
      "Ġamerican": 4653,
      "Ġbesides": 4654,
      "Ġneighbor": 4655,
      "Ġcute": 4656,
      "Ġwarrior": 4657,
      "ino": 4658,
      "Ġvers": 4659,
      "Ġchosen": 4660,
      "Ġbri": 4661,
      "kered": 4662,
      "Ġdisplay": 4663,
      "Ġblonde": 4664,
      "ivid": 4665,
      "Ġhouses": 4666,
      "Ġbalance": 4667,
      "Ġrib": 4668,
      "ache": 4669,
      "Ġkiller": 4670,
      "Ġfan": 4671,
      "Ġtower": 4672,
      "Ġwashed": 4673,
      "Ġorg": 4674,
      "Ġpalms": 4675,
      "Ġrip": 4676,
      "Ġtheyre": 4677,
      "Ġsoldier": 4678,
      "Ġthomas": 4679,
      "Ġram": 4680,
      "Ġsurprising": 4681,
      "inda": 4682,
      "Ġdamned": 4683,
      "Ġdestroy": 4684,
      "Ġzomb": 4685,
      "Ġconcl": 4686,
      "Ġstor": 4687,
      "Ġnurse": 4688,
      "erie": 4689,
      "Ġchristian": 4690,
      "Ġgarage": 4691,
      "Ġloving": 4692,
      "Ġconscious": 4693,
      "Ġbrit": 4694,
      "Ġheal": 4695,
      "Ġug": 4696,
      "Ġadvantage": 4697,
      "ording": 4698,
      "Ġbowl": 4699,
      "inated": 4700,
      "Ġrule": 4701,
      "Ġchocol": 4702,
      "Ġpolit": 4703,
      "real": 4704,
      "Ġsnat": 4705,
      "met": 4706,
      "Ġexplan": 4707,
      "Ġformed": 4708,
      "Ġdiscuss": 4709,
      "Ġwhir": 4710,
      "athy": 4711,
      "Ġfrustration": 4712,
      "Ġdevil": 4713,
      "Ġbackward": 4714,
      "Ġpainful": 4715,
      "Ġbuildings": 4716,
      "taking": 4717,
      "Ġjesus": 4718,
      "tha": 4719,
      "bu": 4720,
      "lord": 4721,
      "Ġdeserve": 4722,
      "Ġlikes": 4723,
      "nic": 4724,
      "pre": 4725,
      "umping": 4726,
      "Ġsigns": 4727,
      "Ġsatur": 4728,
      "Ġparticularly": 4729,
      "Ġrope": 4730,
      "Ġmatters": 4731,
      "mark": 4732,
      "Ġmuscle": 4733,
      "Ġapproach": 4734,
      "Ġsensed": 4735,
      "Ġtask": 4736,
      "Ġexhausted": 4737,
      "urs": 4738,
      "Ġmum": 4739,
      "Ġretreat": 4740,
      "Ġsofa": 4741,
      "Ġmanner": 4742,
      "Ġimpat": 4743,
      "Ġwhats": 4744,
      "Ġattend": 4745,
      "Ġciv": 4746,
      "amped": 4747,
      "Ġdetail": 4748,
      "Ġannounced": 4749,
      "Ġreturning": 4750,
      "Ġlarger": 4751,
      "Ġbutter": 4752,
      "Ġoccup": 4753,
      "Ġalco": 4754,
      "azed": 4755,
      "Ġhissed": 4756,
      "Ġraise": 4757,
      "mission": 4758,
      "Ġloves": 4759,
      "Ġmoves": 4760,
      "tles": 4761,
      "Ġjulia": 4762,
      "ule": 4763,
      "Ġshame": 4764,
      "Ġholy": 4765,
      "Ġriding": 4766,
      "Ġshr": 4767,
      "ads": 4768,
      "Ġmilitary": 4769,
      "Ġfarther": 4770,
      "Ġjane": 4771,
      "ffic": 4772,
      "Ġopin": 4773,
      "Ġpulse": 4774,
      "Ġlicked": 4775,
      "Ġbench": 4776,
      "Ġdropping": 4777,
      "Ġky": 4778,
      "Ġprim": 4779,
      "Ġanna": 4780,
      "Ġcapable": 4781,
      "uses": 4782,
      "ado": 4783,
      "Ġnin": 4784,
      "Ġdisgust": 4785,
      "iring": 4786,
      "Ġforgive": 4787,
      "Ġappearance": 4788,
      "ishment": 4789,
      "Ġchamber": 4790,
      "Ġcorridor": 4791,
      "Ġprice": 4792,
      "Ġattacked": 4793,
      "ators": 4794,
      "Ġmans": 4795,
      "Ġstudents": 4796,
      "Ġcovering": 4797,
      "Ġbeck": 4798,
      "Ġber": 4799,
      "Ġballs": 4800,
      "istic": 4801,
      "sar": 4802,
      "Ġblake": 4803,
      "Ġembarrassed": 4804,
      "han": 4805,
      "Ġacknow": 4806,
      "Ġletters": 4807,
      "Ġsecrets": 4808,
      "Ġbrill": 4809,
      "Ġalarm": 4810,
      "atherine": 4811,
      "Ġnap": 4812,
      "Ġsheet": 4813,
      "Ġcousin": 4814,
      "lotte": 4815,
      "Ġsocial": 4816,
      "Ġcurse": 4817,
      "Ġsuspect": 4818,
      "angs": 4819,
      "Ġshooting": 4820,
      "Ġsnorted": 4821,
      "Ġunlike": 4822,
      "Ġted": 4823,
      "Ġshell": 4824,
      "jon": 4825,
      "Ġrent": 4826,
      "Ġcrou": 4827,
      "Ġmental": 4828,
      "Ġhook": 4829,
      "Ġboo": 4830,
      "Ġterrified": 4831,
      "Ġdrank": 4832,
      "Ġcollar": 4833,
      "Ġfilling": 4834,
      "Ġlied": 4835,
      "expected": 4836,
      "Ġreact": 4837,
      "Ġtables": 4838,
      "Ġprofession": 4839,
      "Ġyanked": 4840,
      "Ġrat": 4841,
      "Ġlots": 4842,
      "asket": 4843,
      "Ġdrown": 4844,
      "Ġpaying": 4845,
      "Ġsweep": 4846,
      "Ġwhit": 4847,
      "Ġchief": 4848,
      "Ġlondon": 4849,
      "Ġfrag": 4850,
      "Ġbrick": 4851,
      "cast": 4852,
      "Ġrhy": 4853,
      "Ġserved": 4854,
      "essa": 4855,
      "Ġraced": 4856,
      "Ġnav": 4857,
      "steps": 4858,
      "Ġglare": 4859,
      "iolet": 4860,
      "Ġmumbled": 4861,
      "gency": 4862,
      "Ġstroked": 4863,
      "Ġslapped": 4864,
      "Ġspeech": 4865,
      "Ġconfident": 4866,
      "Ġappl": 4867,
      "Ġbrows": 4868,
      "Ġbread": 4869,
      "thew": 4870,
      "Ġclaire": 4871,
      "Ġoliv": 4872,
      "Ġgames": 4873,
      "Ġcopy": 4874,
      "Ġeric": 4875,
      "Ġtransp": 4876,
      "Ġpoints": 4877,
      "Ġrecently": 4878,
      "Ġlust": 4879,
      "Ġcel": 4880,
      "isy": 4881,
      "Ġcircumst": 4882,
      "Ġtrapped": 4883,
      "Ġpurple": 4884,
      "Ġcondition": 4885,
      "Ġafford": 4886,
      "Ġfingert": 4887,
      "Ġdecor": 4888,
      "Ġstraightened": 4889,
      "Ġinner": 4890,
      "Ġremaining": 4891,
      "aky": 4892,
      "bbled": 4893,
      "Ġdining": 4894,
      "hun": 4895,
      "Ġstunned": 4896,
      "bal": 4897,
      "Ġgrandfather": 4898,
      "avin": 4899,
      "Ġcarol": 4900,
      "'m": 4901,
      "Ġdriveway": 4902,
      "Ġconvince": 4903,
      "Ġfury": 4904,
      "Ġroyal": 4905,
      "Ġsomewhat": 4906,
      "Ġcutting": 4907,
      "bble": 4908,
      "Ġprotest": 4909,
      "Ġandrew": 4910,
      "ona": 4911,
      "fire": 4912,
      "Ġnumbers": 4913,
      "Ġholds": 4914,
      "Ġglowing": 4915,
      "Ġsomebody": 4916,
      "Ġms": 4917,
      "Ġtense": 4918,
      "year": 4919,
      "remy": 4920,
      "Ġinsane": 4921,
      "Ġsway": 4922,
      "Ġfrightened": 4923,
      "none": 4924,
      "soon": 4925,
      "Ġsilly": 4926,
      "Ġhonestly": 4927,
      "Ġdistr": 4928,
      "Ġfellow": 4929,
      "Ġlies": 4930,
      "Ġgrabbing": 4931,
      "Ġlanding": 4932,
      "Ġugly": 4933,
      "Ġkeeps": 4934,
      "Ġchallenge": 4935,
      "Ġgestured": 4936,
      "Ġabruptly": 4937,
      "Ġattract": 4938,
      "Ġfabric": 4939,
      "Ġarched": 4940,
      "Ġourselves": 4941,
      "Ġcamer": 4942,
      "jen": 4943,
      "Ġchanging": 4944,
      "hus": 4945,
      "gun": 4946,
      "Ġcontr": 4947,
      "imm": 4948,
      "Ġdan": 4949,
      "ulation": 4950,
      "ffe": 4951,
      "Ġfriendly": 4952,
      "Ġguessed": 4953,
      "Ġdetective": 4954,
      "lu": 4955,
      "Ġpanties": 4956,
      "Ġraw": 4957,
      "Ġolivia": 4958,
      "Ġechoed": 4959,
      "Ġthunder": 4960,
      "Ġexit": 4961,
      "Ġunivers": 4962,
      "Ġpatted": 4963,
      "Ġmoaned": 4964,
      "Ġargue": 4965,
      "Ġcher": 4966,
      "Ġchecking": 4967,
      "Ġinit": 4968,
      "Ġdumb": 4969,
      "uh": 4970,
      "Ġneat": 4971,
      "Ġhaw": 4972,
      "otic": 4973,
      "vi": 4974,
      "Ġvanished": 4975,
      "Ġwes": 4976,
      "Ġtapped": 4977,
      "Ġpurch": 4978,
      "Ġpleasant": 4979,
      "Ġbullet": 4980,
      "Ġsooner": 4981,
      "mag": 4982,
      "Ġintern": 4983,
      "Ġprevious": 4984,
      "Ġdrinks": 4985,
      "xic": 4986,
      "ency": 4987,
      "mad": 4988,
      "Ġmask": 4989,
      "Ġproperty": 4990,
      "Ġchocolate": 4991,
      "Ġagent": 4992,
      "Ġacqu": 4993,
      "eds": 4994,
      "Ġarrange": 4995,
      "Ġconnected": 4996,
      "until": 4997,
      "Ġtotal": 4998,
      "Ġplant": 4999,
      "Ġcloth": 5000,
      "Ġalley": 5001,
      "Ġstrike": 5002,
      "Ġvall": 5003,
      "Ġmurd": 5004,
      "Ġdollars": 5005,
      "ients": 5006,
      "Ġoccurred": 5007,
      "emma": 5008,
      "od": 5009,
      "Ġstal": 5010,
      "Ġconnor": 5011,
      "pack": 5012,
      "Ġeyed": 5013,
      "Ġeve": 5014,
      "Ġclosely": 5015,
      "except": 5016,
      "Ġlin": 5017,
      "Ġdismiss": 5018,
      "dge": 5019,
      "Ġhelpless": 5020,
      "Ġreser": 5021,
      "Ġexperienced": 5022,
      "uction": 5023,
      "Ġvide": 5024,
      "sil": 5025,
      "aze": 5026,
      "fall": 5027,
      "ament": 5028,
      "Ġsenses": 5029,
      "iance": 5030,
      "otted": 5031,
      "Ġliz": 5032,
      "rif": 5033,
      "Ġpriest": 5034,
      "rer": 5035,
      "aves": 5036,
      "Ġcigarette": 5037,
      "Ġdesp": 5038,
      "Ġsched": 5039,
      "Ġbothered": 5040,
      "Ġavail": 5041,
      "mary": 5042,
      "Ġelectric": 5043,
      "Ġwrap": 5044,
      "rose": 5045,
      "Ġgovernment": 5046,
      "Ġstatement": 5047,
      "Ġreplaced": 5048,
      "Ġ20": 5049,
      "Ġwhispers": 5050,
      "Ġetern": 5051,
      "Ġchill": 5052,
      "ila": 5053,
      "Ġvague": 5054,
      "Ġsymp": 5055,
      "Ġfashion": 5056,
      "Ġcursed": 5057,
      "Ġsid": 5058,
      "sa": 5059,
      "jake": 5060,
      "aud": 5061,
      "Ġwiz": 5062,
      "Ġpoison": 5063,
      "Ġsaturday": 5064,
      "Ġpacked": 5065,
      "inkled": 5066,
      "Ġhitting": 5067,
      "Ġrick": 5068,
      "Ġplat": 5069,
      "Ġwil": 5070,
      "Ġimpress": 5071,
      "Ġsurrounding": 5072,
      "long": 5073,
      "Ġtough": 5074,
      "Ġcassie": 5075,
      "Ġsunday": 5076,
      "unched": 5077,
      "Ġenorm": 5078,
      "rich": 5079,
      "Ġlex": 5080,
      "Ġseeming": 5081,
      "Ġvul": 5082,
      "wind": 5083,
      "Ġneare": 5084,
      "Ġclearing": 5085,
      "Ġtelevision": 5086,
      "Ġpunch": 5087,
      "anne": 5088,
      "Ġzane": 5089,
      "Ġsexual": 5090,
      "Ġdor": 5091,
      "Ġflin": 5092,
      "erc": 5093,
      "uine": 5094,
      "Ġcale": 5095,
      "Ġunexpected": 5096,
      "Ġliter": 5097,
      "Ġlur": 5098,
      "Ġnate": 5099,
      "aren": 5100,
      "andra": 5101,
      "wait": 5102,
      "Ġere": 5103,
      "gab": 5104,
      "Ġdesign": 5105,
      "Ġeased": 5106,
      "Ġbehav": 5107,
      "Ġthroughout": 5108,
      "Ġliquid": 5109,
      "Ġshrie": 5110,
      "Ġexplanation": 5111,
      "Ġoffering": 5112,
      "Ġnet": 5113,
      "Ġshade": 5114,
      "Ġ9": 5115,
      "Ġagreement": 5116,
      "Ġclos": 5117,
      "ended": 5118,
      "Ġteach": 5119,
      "Ġcrystal": 5120,
      "Ġske": 5121,
      "ulated": 5122,
      "Ġstruggling": 5123,
      "Ġnormally": 5124,
      "Ġcatching": 5125,
      "Ġsheriff": 5126,
      "Ġlined": 5127,
      "call": 5128,
      "Ġprofessor": 5129,
      "Ġseries": 5130,
      "Ġgrinning": 5131,
      "beth": 5132,
      "Ġpaint": 5133,
      "atically": 5134,
      "sim": 5135,
      "Ġliam": 5136,
      "lies": 5137,
      "Ġsource": 5138,
      "Ġtoes": 5139,
      "Ġformer": 5140,
      "hi": 5141,
      "Ġgrasp": 5142,
      "Ġdrug": 5143,
      "Ġhalfway": 5144,
      "Ġshore": 5145,
      "Ġlifting": 5146,
      "Ġperio": 5147,
      "Ġlaughs": 5148,
      "Ġ6": 5149,
      "Ġtraffic": 5150,
      "apparently": 5151,
      "Ġcliff": 5152,
      "Ġeddie": 5153,
      "Ġtray": 5154,
      "Ġgabriel": 5155,
      "Ġmult": 5156,
      "try": 5157,
      "Ġnipp": 5158,
      "Ġlucas": 5159,
      "Ġinqu": 5160,
      "Ġcops": 5161,
      "Ġcrime": 5162,
      "beat": 5163,
      "Ġslowed": 5164,
      "Ġexistence": 5165,
      "Ġunlo": 5166,
      "Ġrecall": 5167,
      "Ġai": 5168,
      "rier": 5169,
      "Ġmember": 5170,
      "Ġassume": 5171,
      "Ġgasp": 5172,
      "Ġinterview": 5173,
      "Ġglancing": 5174,
      "being": 5175,
      "Ġlouder": 5176,
      "Ġpossess": 5177,
      "Ġder": 5178,
      "Ġteasing": 5179,
      "Ġpalace": 5180,
      "Ġwhist": 5181,
      "Ġsunlight": 5182,
      "Ġcasual": 5183,
      "Ġsquir": 5184,
      "rek": 5185,
      "aping": 5186,
      "Ġpossibility": 5187,
      "probably": 5188,
      "give": 5189,
      "Ġsebastian": 5190,
      "Ġmarsh": 5191,
      "Ġsharply": 5192,
      "inger": 5193,
      "Ġhunting": 5194,
      "Ġprotection": 5195,
      "Ġadvice": 5196,
      "Ġsheets": 5197,
      "Ġunus": 5198,
      "Ġbored": 5199,
      "chan": 5200,
      "Ġsqueeze": 5201,
      "Ġfalls": 5202,
      "Ġcomfor": 5203,
      "Ġfile": 5204,
      "Ġet": 5205,
      "Ġkidding": 5206,
      "Ġintens": 5207,
      "Ġtax": 5208,
      "Ġshorts": 5209,
      "Ġsees": 5210,
      "Ġstated": 5211,
      "anges": 5212,
      "Ġshy": 5213,
      "Ġsem": 5214,
      "Ġemploy": 5215,
      "Ġpainted": 5216,
      "Ġsole": 5217,
      "Ġham": 5218,
      "Ġscott": 5219,
      "Ġclue": 5220,
      "Ġdisappointed": 5221,
      "Ġalright": 5222,
      "Ġresponsible": 5223,
      "Ġarrest": 5224,
      "Ġgenuine": 5225,
      "Ġstepping": 5226,
      "Ġfasc": 5227,
      "ruction": 5228,
      "Ġconfidence": 5229,
      "Ġforcing": 5230,
      "gra": 5231,
      "Ġtheyd": 5232,
      "dle": 5233,
      "Ġdestroyed": 5234,
      "Ġconce": 5235,
      "Ġpisto": 5236,
      "Ġthreatened": 5237,
      "Ġplanet": 5238,
      "Ġblast": 5239,
      "Ġbran": 5240,
      "Ġcarpet": 5241,
      "Ġguests": 5242,
      "Ġstrand": 5243,
      "Ġhumor": 5244,
      "Ġclas": 5245,
      "Ġjose": 5246,
      "Ġcaut": 5247,
      "vet": 5248,
      "jected": 5249,
      "Ġrestr": 5250,
      "christ": 5251,
      "Ġhaul": 5252,
      "Ġinvited": 5253,
      "Ġsounding": 5254,
      "mrs": 5255,
      "Ġintellig": 5256,
      "clock": 5257,
      "Ġnoah": 5258,
      "Ġhappiness": 5259,
      "Ġperform": 5260,
      "Ġkar": 5261,
      "Ġbord": 5262,
      "Ġdrum": 5263,
      "Ġdang": 5264,
      "ugg": 5265,
      "Ġnoted": 5266,
      "Ġignoring": 5267,
      "Ġfootsteps": 5268,
      "gue": 5269,
      "Ġdull": 5270,
      "Ġclar": 5271,
      "Ġtend": 5272,
      "Ġcompet": 5273,
      "Ġfence": 5274,
      "Ġep": 5275,
      "part": 5276,
      "Ġgown": 5277,
      "Ġmarket": 5278,
      "Ġdistracted": 5279,
      "hh": 5280,
      "Ġnails": 5281,
      "reg": 5282,
      "ctions": 5283,
      "Ġgal": 5284,
      "ran": 5285,
      "should": 5286,
      "Ġvehicle": 5287,
      "Ġtrailed": 5288,
      "Ġattached": 5289,
      "Ġstops": 5290,
      "vation": 5291,
      "Ġstones": 5292,
      "Ġextended": 5293,
      "law": 5294,
      "Ġphoto": 5295,
      "stop": 5296,
      "Ġbirds": 5297,
      "Ġwithd": 5298,
      "Ġstrode": 5299,
      "belie": 5300,
      "Ġfeared": 5301,
      "Ġruns": 5302,
      "hear": 5303,
      "especially": 5304,
      "azz": 5305,
      "sie": 5306,
      "Ġspan": 5307,
      "Ġextremely": 5308,
      "Ġtrusted": 5309,
      "atively": 5310,
      "uous": 5311,
      "Ġissue": 5312,
      "Ġremark": 5313,
      "Ġamused": 5314,
      "Ġbowed": 5315,
      "known": 5316,
      "Ġax": 5317,
      "Ġsnap": 5318,
      "Ġwicked": 5319,
      "ago": 5320,
      "anches": 5321,
      "Ġmail": 5322,
      "Ġmothers": 5323,
      "Ġbarn": 5324,
      "Ġracing": 5325,
      "sters": 5326,
      "Ġsean": 5327,
      "iosity": 5328,
      "Ġcontract": 5329,
      "Ġprogram": 5330,
      "Ġess": 5331,
      "Ġisab": 5332,
      "Ġexpress": 5333,
      "Ġdiss": 5334,
      "Ġscramb": 5335,
      "Ġinvis": 5336,
      "Ġlightning": 5337,
      "Ġjulian": 5338,
      "Ġbleeding": 5339,
      "Ġfriday": 5340,
      "Ġhal": 5341,
      "Ġprevent": 5342,
      "Ġconstant": 5343,
      "Ġexclaimed": 5344,
      "Ġcovers": 5345,
      "Ġends": 5346,
      "Ġrhyth": 5347,
      "ember": 5348,
      "Ġswallow": 5349,
      "ta": 5350,
      "Ġbelonged": 5351,
      "Ġwashing": 5352,
      "Ġarent": 5353,
      "hetic": 5354,
      "Ġvel": 5355,
      "Ġmaint": 5356,
      "sequ": 5357,
      "Ġalcohol": 5358,
      "Ġnerves": 5359,
      "Ġexposed": 5360,
      "Ġshrug": 5361,
      "win": 5362,
      "Ġelizabeth": 5363,
      "Ġadult": 5364,
      "Ġbackground": 5365,
      "Ġparted": 5366,
      "Ġtrained": 5367,
      "Ġoriginal": 5368,
      "Ġabandoned": 5369,
      "Ġpockets": 5370,
      "Ġblink": 5371,
      "Ġmia": 5372,
      "eled": 5373,
      "run": 5374,
      "pa": 5375,
      "Ġ7": 5376,
      "Ġmaid": 5377,
      "Ġchamp": 5378,
      "iverse": 5379,
      "Ġtub": 5380,
      "'d": 5381,
      "Ġswing": 5382,
      "slow": 5383,
      "cra": 5384,
      "ethan": 5385,
      "Ġdating": 5386,
      "umble": 5387,
      "Ġfake": 5388,
      "orts": 5389,
      "Ġcollapsed": 5390,
      "Ġcharacter": 5391,
      "Ġmagaz": 5392,
      "Ġcrawled": 5393,
      "Ġmud": 5394,
      "Ġshown": 5395,
      "Ġyards": 5396,
      "chie": 5397,
      "Ġnud": 5398,
      "Ġscru": 5399,
      "Ġopinion": 5400,
      "Ġvin": 5401,
      "Ġgrant": 5402,
      "orting": 5403,
      "Ġflame": 5404,
      "oud": 5405,
      "van": 5406,
      "Ġsection": 5407,
      "Ġdiam": 5408,
      "Ġcourage": 5409,
      "Ġsandw": 5410,
      "Ġnervously": 5411,
      "Ġlocation": 5412,
      "Ġgrief": 5413,
      "eter": 5414,
      "Ġfathers": 5415,
      "Ġbeard": 5416,
      "wolf": 5417,
      "Ġanswering": 5418,
      "Ġimages": 5419,
      "eyed": 5420,
      "anyway": 5421,
      "many": 5422,
      "field": 5423,
      "kat": 5424,
      "Ġdeserved": 5425,
      "Ġstudying": 5426,
      "Ġcot": 5427,
      "Ġcircumstances": 5428,
      "ford": 5429,
      "Ġgoddam": 5430,
      "Ġintention": 5431,
      "Ġrobe": 5432,
      "Ġvisible": 5433,
      "Ġshopping": 5434,
      "lights": 5435,
      "Ġchicken": 5436,
      "Ġautom": 5437,
      "orter": 5438,
      "gger": 5439,
      "Ġnik": 5440,
      "put": 5441,
      "Ġexpensive": 5442,
      "foot": 5443,
      "Ġspending": 5444,
      "Ġdepartment": 5445,
      "Ġtank": 5446,
      "Ġmilk": 5447,
      "Ġtroub": 5448,
      "Ġshuff": 5449,
      "Ġcontain": 5450,
      "Ġbart": 5451,
      "jes": 5452,
      "Ġpassenger": 5453,
      "haw": 5454,
      "Ġsinging": 5455,
      "Ġdesert": 5456,
      "Ġshining": 5457,
      "Ġserve": 5458,
      "Ġbrian": 5459,
      "Ġenormous": 5460,
      "Ġrever": 5461,
      "Ġinn": 5462,
      "james": 5463,
      "Ġcruel": 5464,
      "Ġretrie": 5465,
      "Ġcage": 5466,
      "Ġveins": 5467,
      "Ġrequest": 5468,
      "rolled": 5469,
      "Ġvent": 5470,
      "Ġremembering": 5471,
      "Ġhoriz": 5472,
      "Ġactual": 5473,
      "Ġembrace": 5474,
      "Ġknelt": 5475,
      "mist": 5476,
      "Ġfingertips": 5477,
      "Ġaccent": 5478,
      "Ġapproaching": 5479,
      "standing": 5480,
      "Ġron": 5481,
      "bly": 5482,
      "Ġcy": 5483,
      "Ġquit": 5484,
      "Ġmotioned": 5485,
      "Ġuncertain": 5486,
      "Ġvalley": 5487,
      "Ġclaimed": 5488,
      "Ġshivered": 5489,
      "Ġrequired": 5490,
      "Ġeyel": 5491,
      "Ġrhythm": 5492,
      "Ġlee": 5493,
      "worth": 5494,
      "Ġadvent": 5495,
      "Ġabby": 5496,
      "ams": 5497,
      "Ġwise": 5498,
      "itar": 5499,
      "Ġactions": 5500,
      "Ġdy": 5501,
      "Ġneighb": 5502,
      "spect": 5503,
      "Ġtrunk": 5504,
      "Ġseated": 5505,
      "oms": 5506,
      "ryan": 5507,
      "Ġtap": 5508,
      "Ġunw": 5509,
      "gal": 5510,
      "ooped": 5511,
      "eline": 5512,
      "Ġgroan": 5513,
      "Ġemerged": 5514,
      "Ġvirgin": 5515,
      "Ġprecious": 5516,
      "clo": 5517,
      "Ġwing": 5518,
      "loe": 5519,
      "Ġrevealed": 5520,
      "Ġtony": 5521,
      "Ġideas": 5522,
      "Ġdelicate": 5523,
      "istan": 5524,
      "Ġflushed": 5525,
      "Ġdelicious": 5526,
      "Ġbasket": 5527,
      "Ġrab": 5528,
      "Ġguest": 5529,
      "Ġspare": 5530,
      "husi": 5531,
      "Ġbike": 5532,
      "aron": 5533,
      "Ġsatisfied": 5534,
      "Ġmas": 5535,
      "rete": 5536,
      "Ġvulner": 5537,
      "Ġwrists": 5538,
      "Ġrig": 5539,
      "Ġresearch": 5540,
      "michael": 5541,
      "Ġjay": 5542,
      "Ġloyal": 5543,
      "reek": 5544,
      "Ġdean": 5545,
      "Ġshuddered": 5546,
      "Ġache": 5547,
      "illa": 5548,
      "Ġchann": 5549,
      "Ġwolves": 5550,
      "Ġtrad": 5551,
      "Ġserge": 5552,
      "happ": 5553,
      "Ġallowing": 5554,
      "Ġappo": 5555,
      "stone": 5556,
      "Ġhurting": 5557,
      "ites": 5558,
      "Ġexec": 5559,
      "Ġstyle": 5560,
      "Ġtracks": 5561,
      "neither": 5562,
      "Ġbilly": 5563,
      "Ġmuff": 5564,
      "ari": 5565,
      "Ġstroll": 5566,
      "Ġbob": 5567,
      "ifer": 5568,
      "Ġcards": 5569,
      "ribut": 5570,
      "iture": 5571,
      "Ġbrilliant": 5572,
      "Ġcivil": 5573,
      "Ġsurve": 5574,
      "ero": 5575,
      "olen": 5576,
      "Ġbreaths": 5577,
      "Ġtill": 5578,
      "Ġpassage": 5579,
      "amps": 5580,
      "Ġmedical": 5581,
      "cal": 5582,
      "sw": 5583,
      "Ġthread": 5584,
      "Ġhundreds": 5585,
      "Ġcuriosity": 5586,
      "cur": 5587,
      "Ġflicked": 5588,
      "Ġfairly": 5589,
      "hard": 5590,
      "Ġteased": 5591,
      "Ġinformed": 5592,
      "Ġcris": 5593,
      "Ġwarriors": 5594,
      "Ġmixed": 5595,
      "Ġstead": 5596,
      "Ġchoked": 5597,
      "Ġcareer": 5598,
      "Ġwinked": 5599,
      "Ġamuse": 5600,
      "Ġbranches": 5601,
      "Ġcontent": 5602,
      "Ġais": 5603,
      "Ġdepth": 5604,
      "Ġprogress": 5605,
      "Ġinvisible": 5606,
      "atory": 5607,
      "max": 5608,
      "Ġrifle": 5609,
      "Ġsara": 5610,
      "Ġremains": 5611,
      "Ġanybody": 5612,
      "Ġshouting": 5613,
      "Ġpatient": 5614,
      "Ġimpro": 5615,
      "Ġstates": 5616,
      "vert": 5617,
      "Ġbrave": 5618,
      "ulate": 5619,
      "Ġing": 5620,
      "Ġstall": 5621,
      "Ġblu": 5622,
      "pat": 5623,
      "Ġproceed": 5624,
      "Ġcorners": 5625,
      "Ġavailable": 5626,
      "Ġfreedom": 5627,
      "Ġwhoever": 5628,
      "pri": 5629,
      "Ġperiod": 5630,
      "Ġraising": 5631,
      "Ġdigging": 5632,
      "Ġglances": 5633,
      "Ġjerk": 5634,
      "wal": 5635,
      "Ġlover": 5636,
      "Ġboot": 5637,
      "Ġenthusi": 5638,
      "Ġstubb": 5639,
      "Ġwink": 5640,
      "Ġmotor": 5641,
      "inal": 5642,
      "Ġcoast": 5643,
      "Ġcomplex": 5644,
      "Ġsacrif": 5645,
      "Ġstern": 5646,
      "Ġlately": 5647,
      "esome": 5648,
      "Ġclaws": 5649,
      "unfortunately": 5650,
      "Ġmoan": 5651,
      "Ġnewsp": 5652,
      "andy": 5653,
      "Ġspect": 5654,
      "Ġuniverse": 5655,
      "Ġmidnight": 5656,
      "six": 5657,
      "Ġwaving": 5658,
      "Ġbolt": 5659,
      "Ġpuff": 5660,
      "Ġdrugs": 5661,
      "Ġscanned": 5662,
      "ordan": 5663,
      "Ġsevent": 5664,
      "Ġknocking": 5665,
      "Ġwounds": 5666,
      "Ġmoder": 5667,
      "zzy": 5668,
      "Ġimpression": 5669,
      "Ġque": 5670,
      "bro": 5671,
      "Ġterms": 5672,
      "Ġgear": 5673,
      "Ġvideo": 5674,
      "icles": 5675,
      "Ġcredit": 5676,
      "Ġcad": 5677,
      "Ġpec": 5678,
      "elia": 5679,
      "gered": 5680,
      "ville": 5681,
      "Ġslipping": 5682,
      "Ġdrops": 5683,
      "Ġgreeted": 5684,
      "belief": 5685,
      "tor": 5686,
      "Ġpages": 5687,
      "mike": 5688,
      "gas": 5689,
      "Ġfamil": 5690,
      "aying": 5691,
      "Ġdial": 5692,
      "Ġimpl": 5693,
      "Ġscen": 5694,
      "Ġrushing": 5695,
      "inding": 5696,
      "Ġsail": 5697,
      "Ġphotograph": 5698,
      "Ġmile": 5699,
      "Ġbars": 5700,
      "Ġboxes": 5701,
      "Ġpra": 5702,
      "Ġdeny": 5703,
      "Ġhid": 5704,
      "Ġtrap": 5705,
      "Ġfurniture": 5706,
      "Ġcharles": 5707,
      "Ġexploded": 5708,
      "Ġribs": 5709,
      "lings": 5710,
      "Ġlux": 5711,
      "Ġannoyed": 5712,
      "Ġoil": 5713,
      "Ġeaten": 5714,
      "Ġlucy": 5715,
      "Ġsits": 5716,
      "asper": 5717,
      "anor": 5718,
      "Ġtasted": 5719,
      "through": 5720,
      "Ġimmort": 5721,
      "aph": 5722,
      "Ġdeliber": 5723,
      "urally": 5724,
      "Ġmakeup": 5725,
      "Ġaddition": 5726,
      "Ġoption": 5727,
      "Ġgul": 5728,
      "Ġmiser": 5729,
      "Ġfoolish": 5730,
      "Ġripp": 5731,
      "Ġwealth": 5732,
      "Ġspinning": 5733,
      "Ġnightmare": 5734,
      "Ġimpressed": 5735,
      "Ġsore": 5736,
      "oops": 5737,
      "Ġclay": 5738,
      "Ġfreak": 5739,
      "Ġapologize": 5740,
      "Ġbiggest": 5741,
      "imate": 5742,
      "Ġsociety": 5743,
      "Ġthousands": 5744,
      "Ġreaches": 5745,
      "olas": 5746,
      "Ġrapidly": 5747,
      "Ġknuck": 5748,
      "cel": 5749,
      "Ġsteve": 5750,
      "Ġdiamond": 5751,
      "Ġowner": 5752,
      "Ġslee": 5753,
      "Ġscreams": 5754,
      "Ġarou": 5755,
      "ability": 5756,
      "Ġjol": 5757,
      "Ġ10": 5758,
      "tail": 5759,
      "Ġdanced": 5760,
      "Ġri": 5761,
      "Ġhabit": 5762,
      "acon": 5763,
      "urance": 5764,
      "Ġstock": 5765,
      "Ġtighter": 5766,
      "Ġdragging": 5767,
      "Ġasp": 5768,
      "Ġgathering": 5769,
      "Ġcommit": 5770,
      "Ġcolors": 5771,
      "Ġorgasm": 5772,
      "Ġinsist": 5773,
      "Ġbegins": 5774,
      "Ġrelig": 5775,
      "Ġleans": 5776,
      "Ġfog": 5777,
      "Ġhandful": 5778,
      "tears": 5779,
      "Ġmarks": 5780,
      "Ġargument": 5781,
      "Ġharry": 5782,
      "nda": 5783,
      "icted": 5784,
      "Ġappe": 5785,
      "Ġrefer": 5786,
      "Ġbehavior": 5787,
      "ij": 5788,
      "Ġcrept": 5789,
      "Ġtrade": 5790,
      "ickered": 5791,
      "Ġtrace": 5792,
      "Ġjacob": 5793,
      "ele": 5794,
      "ika": 5795,
      "Ġcircles": 5796,
      "Ġrandom": 5797,
      "Ġpig": 5798,
      "Ġjail": 5799,
      "Ġaccompl": 5800,
      "Ġratt": 5801,
      "Ġgiggled": 5802,
      "Ġruin": 5803,
      "Ġconcrete": 5804,
      "Ġclutched": 5805,
      "Ġships": 5806,
      "Ġuniform": 5807,
      "Ġult": 5808,
      "Ġnodding": 5809,
      "hind": 5810,
      "ok": 5811,
      "Ġcrash": 5812,
      "Ġscri": 5813,
      "Ġcupped": 5814,
      "ideon": 5815,
      "Ġairport": 5816,
      "Ġbust": 5817,
      "Ġarrive": 5818,
      "Ġjun": 5819,
      "Ġversion": 5820,
      "oul": 5821,
      "Ġflower": 5822,
      "Ġlaz": 5823,
      "Ġbrushing": 5824,
      "Ġcloak": 5825,
      "Ġpunched": 5826,
      "Ġwounded": 5827,
      "Ġsidewalk": 5828,
      "grace": 5829,
      "Ġsweetheart": 5830,
      "yard": 5831,
      "Ġras": 5832,
      "Ġrealizing": 5833,
      "log": 5834,
      "vies": 5835,
      "Ġbetray": 5836,
      "avi": 5837,
      "Ġlace": 5838,
      "____": 5839,
      "Ġwandered": 5840,
      "Ġsymb": 5841,
      "Ġsaving": 5842,
      "Ġseats": 5843,
      "Ġsecure": 5844,
      "Ġcore": 5845,
      "Ġassass": 5846,
      "somehow": 5847,
      "Ġkingdom": 5848,
      "Ġtreated": 5849,
      "Ġscattered": 5850,
      "Ġthrone": 5851,
      "wat": 5852,
      "Ġsugar": 5853,
      "Ġreveal": 5854,
      "Ġstubborn": 5855,
      "Ġkim": 5856,
      "Ġcalmly": 5857,
      "Ġstruggle": 5858,
      "Ġemotional": 5859,
      "nis": 5860,
      "Ġprovided": 5861,
      "Ġgrunted": 5862,
      "Ġdisbelief": 5863,
      "Ġspat": 5864,
      "Ġcode": 5865,
      "Ġexcell": 5866,
      "Ġdealing": 5867,
      "Ġcreate": 5868,
      "Ġivy": 5869,
      "Ġraven": 5870,
      "slowly": 5871,
      "wear": 5872,
      "Ġmaggie": 5873,
      "lau": 5874,
      "Ġmarch": 5875,
      "Ġought": 5876,
      "Ġopens": 5877,
      "ilet": 5878,
      "Ġincredible": 5879,
      "Ġstudent": 5880,
      "Ġruth": 5881,
      "lee": 5882,
      "Ġanxious": 5883,
      "uch": 5884,
      "Ġfred": 5885,
      "ini": 5886,
      "Ġrevealing": 5887,
      "remember": 5888,
      "Ġpistol": 5889,
      "Ġfamilies": 5890,
      "together": 5891,
      "Ġshattered": 5892,
      "jason": 5893,
      "Ġchanges": 5894,
      "Ġedges": 5895,
      "Ġremove": 5896,
      "bey": 5897,
      "Ġsteal": 5898,
      "Ġstretch": 5899,
      "avier": 5900,
      "Ġhills": 5901,
      "Ġbomb": 5902,
      "Ġvast": 5903,
      "Ġquarter": 5904,
      "Ġwishing": 5905,
      "Ġresol": 5906,
      "hat": 5907,
      "Ġminds": 5908,
      "world": 5909,
      "umn": 5910,
      "Ġcord": 5911,
      "Ġskills": 5912,
      "ali": 5913,
      "Ġglit": 5914,
      "tar": 5915,
      "Ġnest": 5916,
      "Ġpow": 5917,
      "Ġindivid": 5918,
      "Ġdirections": 5919,
      "Ġelder": 5920,
      "Ġeverybody": 5921,
      "Ġcharged": 5922,
      "Ġcooper": 5923,
      "Ġeleven": 5924,
      "Ġholiday": 5925,
      "Ġwan": 5926,
      "Ġcrown": 5927,
      "Ġfruit": 5928,
      "Ġfet": 5929,
      "Ġmarked": 5930,
      "Ġbabe": 5931,
      "oning": 5932,
      "Ġupward": 5933,
      "Ġoverhead": 5934,
      "Ġgoodbye": 5935,
      "Ġmortal": 5936,
      "Ġsleeve": 5937,
      "list": 5938,
      "theyre": 5939,
      "Ġlawyer": 5940,
      "Ġwre": 5941,
      "Ġofficial": 5942,
      "Ġdrawer": 5943,
      "Ġcocked": 5944,
      "things": 5945,
      "Ġroar": 5946,
      "Ġunusual": 5947,
      "seeing": 5948,
      "Ġofficers": 5949,
      "Ġexpert": 5950,
      "Ġyoud": 5951,
      "Ġ8": 5952,
      "Ġbubb": 5953,
      "Ġuniversity": 5954,
      "Ġgradu": 5955,
      "Ġrole": 5956,
      "iles": 5957,
      "Ġremote": 5958,
      "Ġlearning": 5959,
      "Ġdefend": 5960,
      "mate": 5961,
      "Ġsymbol": 5962,
      "acted": 5963,
      "dar": 5964,
      "Ġamusement": 5965,
      "Ġze": 5966,
      "bi": 5967,
      "Ġflow": 5968,
      "Ġglimp": 5969,
      "Ġroared": 5970,
      "Ġholly": 5971,
      "Ġstrip": 5972,
      "Ġsheep": 5973,
      "Ġruss": 5974,
      "Ġglimpse": 5975,
      "think": 5976,
      "Ġtechn": 5977,
      "Ġexchange": 5978,
      "roy": 5979,
      "Ġsentence": 5980,
      "lying": 5981,
      "Ġgrowl": 5982,
      "Ġputs": 5983,
      "Ġbegged": 5984,
      "rum": 5985,
      "Ġsurvived": 5986,
      "black": 5987,
      "Ġwinced": 5988,
      "Ġoak": 5989,
      "Ġaudience": 5990,
      "peter": 5991,
      "Ġjet": 5992,
      "Ġdried": 5993,
      "Ġmystery": 5994,
      "haired": 5995,
      "Ġneg": 5996,
      "Ġsatisfaction": 5997,
      "encer": 5998,
      "Ġgym": 5999,
      "uing": 6000,
      "Ġprofessional": 6001,
      "sarah": 6002,
      "Ġdriven": 6003,
      "Ġduke": 6004,
      "Ġyouth": 6005,
      "Ġclosest": 6006,
      "Ġviolet": 6007,
      "Ġswitch": 6008,
      "Ġdeliver": 6009,
      "Ġnasty": 6010,
      "Ġfootball": 6011,
      "Ġsout": 6012,
      "Ġcollect": 6013,
      "Ġcult": 6014,
      "next": 6015,
      "Ġowned": 6016,
      "Ġcit": 6017,
      "Ġrarely": 6018,
      "Ġobs": 6019,
      "Ġprecise": 6020,
      "Ġcurve": 6021,
      "Ġgoddess": 6022,
      "water": 6023,
      "Ġfrost": 6024,
      "Ġstuffed": 6025,
      "Ġnak": 6026,
      "Ġmattress": 6027,
      "Ġroland": 6028,
      "Ġunconscious": 6029,
      "Ġissu": 6030,
      "Ġcake": 6031,
      "Ġrepres": 6032,
      "Ġcenturies": 6033,
      "Ġstolen": 6034,
      "Ġseparate": 6035,
      "Ġshots": 6036,
      "Ġmoist": 6037,
      "Ġcough": 6038,
      "ggy": 6039,
      "add": 6040,
      "paul": 6041,
      "greg": 6042,
      "Ġentertain": 6043,
      "hawk": 6044,
      "Ġstraw": 6045,
      "Ġfurious": 6046,
      "erica": 6047,
      "Ġwhipped": 6048,
      "lace": 6049,
      "tra": 6050,
      "luck": 6051,
      "elling": 6052,
      "Ġjonathan": 6053,
      "Ġdagger": 6054,
      "Ġromantic": 6055,
      "shot": 6056,
      "Ġmovements": 6057,
      "Ġreception": 6058,
      "sho": 6059,
      "gment": 6060,
      "ga": 6061,
      "Ġhappily": 6062,
      "Ġjar": 6063,
      "Ġfolks": 6064,
      "Ġruined": 6065,
      "Ġanticipation": 6066,
      "tery": 6067,
      "Ġmatthew": 6068,
      "Ġhunger": 6069,
      "cture": 6070,
      "Ġsons": 6071,
      "great": 6072,
      "Ġstroke": 6073,
      "Ġfel": 6074,
      "hunter": 6075,
      "ouch": 6076,
      "Ġaye": 6077,
      "Ġnearest": 6078,
      "Ġunknown": 6079,
      "ya": 6080,
      "surely": 6081,
      "Ġcasually": 6082,
      "life": 6083,
      "Ġshove": 6084,
      "izzy": 6085,
      "aries": 6086,
      "Ġdude": 6087,
      "Ġlawn": 6088,
      "icy": 6089,
      "Ġmagical": 6090,
      "Ġdylan": 6091,
      "Ġenemies": 6092,
      "Ġfloating": 6093,
      "Ġshows": 6094,
      "Ġthreatening": 6095,
      "Ġtorture": 6096,
      "jess": 6097,
      "Ġhollow": 6098,
      "Ġcompanion": 6099,
      "Ġdiscover": 6100,
      "aylor": 6101,
      "Ġyelling": 6102,
      "Ġillum": 6103,
      "Ġcheese": 6104,
      "Ġmild": 6105,
      "Ġlink": 6106,
      "Ġtipped": 6107,
      "Ġgage": 6108,
      "Ġassistant": 6109,
      "Ġsnake": 6110,
      "hens": 6111,
      "Ġamanda": 6112,
      "uary": 6113,
      "venge": 6114,
      "Ġarmor": 6115,
      "itable": 6116,
      "Ġrange": 6117,
      "Ġsmith": 6118,
      "Ġcleaning": 6119,
      "Ġfancy": 6120,
      "uded": 6121,
      "Ġseason": 6122,
      "Ġpotential": 6123,
      "Ġlic": 6124,
      "isions": 6125,
      "Ġmovies": 6126,
      "Ġupright": 6127,
      "Ġstag": 6128,
      "Ġpermission": 6129,
      "Ġrescue": 6130,
      "Ġparis": 6131,
      "Ġfourth": 6132,
      "Ġguide": 6133,
      "Ġproof": 6134,
      "Ġsuc": 6135,
      "Ġflag": 6136,
      "Ġpizz": 6137,
      "Ġgreater": 6138,
      "Ġsneak": 6139,
      "Ġfangs": 6140,
      "mond": 6141,
      "icks": 6142,
      "Ġnovel": 6143,
      "Ġlobby": 6144,
      "Ġimagination": 6145,
      "Ġjewel": 6146,
      "Ġdave": 6147,
      "Ġspit": 6148,
      "Ġpresident": 6149,
      "Ġcontempl": 6150,
      "Ġrecent": 6151,
      "behind": 6152,
      "Ġwrapping": 6153,
      "spe": 6154,
      "esty": 6155,
      "Ġaston": 6156,
      "Ġjace": 6157,
      "Ġsurre": 6158,
      "Ġowe": 6159,
      "Ġmall": 6160,
      "Ġhast": 6161,
      "Ġdow": 6162,
      "raged": 6163,
      "Ġtrash": 6164,
      "Ġsele": 6165,
      "Ġprovide": 6166,
      "Ġalert": 6167,
      "Ġstring": 6168,
      "Ġjohnny": 6169,
      "Ġleapt": 6170,
      "Ġthorough": 6171,
      "Ġcrashed": 6172,
      "Ġcandle": 6173,
      "Ġreck": 6174,
      "Ġfeather": 6175,
      "Ġlimbs": 6176,
      "Ġequip": 6177,
      "last": 6178,
      "Ġkicking": 6179,
      "Ġsadness": 6180,
      "Ġaffection": 6181,
      "actually": 6182,
      "either": 6183,
      "rily": 6184,
      "Ġenvelope": 6185,
      "Ġgain": 6186,
      "Ġbooth": 6187,
      "Ġinflu": 6188,
      "Ġjoseph": 6189,
      "Ġdece": 6190,
      "Ġdoubted": 6191,
      "Ġcrad": 6192,
      "Ġaccording": 6193,
      "Ġtab": 6194,
      "Ġclan": 6195,
      "Ġswore": 6196,
      "Ġneighborhood": 6197,
      "Ġbreasts": 6198,
      "Ġemergency": 6199,
      "Ġaching": 6200,
      "Ġtroll": 6201,
      "rison": 6202,
      "Ġbullshit": 6203,
      "Ġeighteen": 6204,
      "Ġcharlotte": 6205,
      "Ġali": 6206,
      "Ġindividual": 6207,
      "Ġperman": 6208,
      "Ġlonely": 6209,
      "Ġfamous": 6210,
      "Ġattempted": 6211,
      "vere": 6212,
      "Ġcrowded": 6213,
      "Ġitems": 6214,
      "mail": 6215,
      "Ġconnect": 6216,
      "Ġhorizon": 6217,
      "Ġstole": 6218,
      "Ġcrit": 6219,
      "Ġducked": 6220,
      "Ġnipple": 6221,
      "Ġtristan": 6222,
      "nate": 6223,
      "Ġwow": 6224,
      "Ġdragons": 6225,
      "Ġsouls": 6226,
      "Ġcerem": 6227,
      "bow": 6228,
      "va": 6229,
      "Ġgates": 6230,
      "Ġdarling": 6231,
      "Ġellie": 6232,
      "Ġrevol": 6233,
      "Ġwren": 6234,
      "Ġhired": 6235,
      "Ġcontents": 6236,
      "olog": 6237,
      "Ġaver": 6238,
      "fan": 6239,
      "tal": 6240,
      "Ġstress": 6241,
      "Ġswords": 6242,
      "Ġboun": 6243,
      "org": 6244,
      "Ġarranged": 6245,
      "Ġglor": 6246,
      "guing": 6247,
      "Ġliterally": 6248,
      "kins": 6249,
      "isc": 6250,
      "Ġendless": 6251,
      "Ġmob": 6252,
      "soci": 6253,
      "Ġerr": 6254,
      "inating": 6255,
      "Ġclicked": 6256,
      "Ġelbows": 6257,
      "Ġmattered": 6258,
      "Ġbond": 6259,
      "Ġdecent": 6260,
      "Ġtwin": 6261,
      "Ġclimbing": 6262,
      "Ġsharing": 6263,
      "Ġforces": 6264,
      "Ġcommunity": 6265,
      "Ġattitude": 6266,
      "Ġsuspicious": 6267,
      "Ġhalt": 6268,
      "several": 6269,
      "Ġspilled": 6270,
      "arse": 6271,
      "lar": 6272,
      "Ġcleaned": 6273,
      "sized": 6274,
      "Ġequipment": 6275,
      "Ġacted": 6276,
      "Ġstool": 6277,
      "Ġbackpack": 6278,
      "Ġearn": 6279,
      "Ġmorgan": 6280,
      "iron": 6281,
      "Ġexisted": 6282,
      "Ġnathan": 6283,
      "Ġmonday": 6284,
      "dor": 6285,
      "los": 6286,
      "ounds": 6287,
      "Ġassoci": 6288,
      "Ġattractive": 6289,
      "ixt": 6290,
      "Ġjumping": 6291,
      "Ġpity": 6292,
      "nobody": 6293,
      "say": 6294,
      "love": 6295,
      "Ġtape": 6296,
      "Ġestate": 6297,
      "Ġterrit": 6298,
      "anything": 6299,
      "david": 6300,
      "Ġsergeant": 6301,
      "Ġox": 6302,
      "Ġwaitress": 6303,
      "Ġmedic": 6304,
      "Ġtrent": 6305,
      "Ġgang": 6306,
      "cting": 6307,
      "almost": 6308,
      "Ġplacing": 6309,
      "Ġpolite": 6310,
      "Ġlun": 6311,
      "Ġstares": 6312,
      "Ġroute": 6313,
      "Ġbrut": 6314,
      "eight": 6315,
      "Ġlamp": 6316,
      "Ġeur": 6317,
      "phe": 6318,
      "Ġdefense": 6319,
      "ingly": 6320,
      "cut": 6321,
      "fee": 6322,
      "Ġmelted": 6323,
      "Ġdisappointment": 6324,
      "plus": 6325,
      "Ġtempor": 6326,
      "Ġragged": 6327,
      "Ġrude": 6328,
      "Ġdart": 6329,
      "Ġspirits": 6330,
      "Ġtensed": 6331,
      "Ġlaura": 6332,
      "Ġcrossing": 6333,
      "Ġsixteen": 6334,
      "Ġbegging": 6335,
      "Ġchic": 6336,
      "Ġmodern": 6337,
      "Ġphotos": 6338,
      "Ġbasement": 6339,
      "Ġmercy": 6340,
      "Ġvic": 6341,
      "Ġamber": 6342,
      "Ġheartbeat": 6343,
      "Ġevan": 6344,
      "Ġpositive": 6345,
      "Ġconstantly": 6346,
      "Ġsnatched": 6347,
      "ram": 6348,
      "Ġrag": 6349,
      "eness": 6350,
      "Ġvulnerable": 6351,
      "Ġmug": 6352,
      "Ġhighway": 6353,
      "fred": 6354,
      "Ġbuddy": 6355,
      "Ġwhispering": 6356,
      "Ġincredibly": 6357,
      "Ġsnarled": 6358,
      "Ġcomplicated": 6359,
      "Ġpounded": 6360,
      "Ġconfirmed": 6361,
      "Ġflashing": 6362,
      "Ġstack": 6363,
      "Ġstroking": 6364,
      "Ġtodd": 6365,
      "Ġpossessed": 6366,
      "asses": 6367,
      "Ġmarcus": 6368,
      "ours": 6369,
      "Ġfond": 6370,
      "Ġflowing": 6371,
      "ctors": 6372,
      "Ġcoach": 6373,
      "Ġservants": 6374,
      "Ġgwen": 6375,
      "Ġhealthy": 6376,
      "Ġpretending": 6377,
      "emon": 6378,
      "vo": 6379,
      "Ġfreaking": 6380,
      "Ġkinds": 6381,
      "Ġpatience": 6382,
      "Ġscary": 6383,
      "cole": 6384,
      "sur": 6385,
      "Ġtam": 6386,
      "Ġdeclared": 6387,
      "sus": 6388,
      "Ġmama": 6389,
      "Ġawesome": 6390,
      "Ġinjured": 6391,
      "Ġhesitation": 6392,
      "Ġscrambled": 6393,
      "Ġdwar": 6394,
      "Ġcommander": 6395,
      "Ġrings": 6396,
      "Ġsire": 6397,
      "Ġspite": 6398,
      "Ġshiny": 6399,
      "Ġreflection": 6400,
      "Ġagony": 6401,
      "Ġsensitive": 6402,
      "Ġdarkened": 6403,
      "Ġfrequ": 6404,
      "ollen": 6405,
      "pse": 6406,
      "Ġpouring": 6407,
      "osing": 6408,
      "adam": 6409,
      "Ġtraveled": 6410,
      "Ġfriendship": 6411,
      "Ġnu": 6412,
      "armed": 6413,
      "Ġseek": 6414,
      "Ġsideways": 6415,
      "Ġdarted": 6416,
      "Ġclasses": 6417,
      "Ġdish": 6418,
      "turning": 6419,
      "Ġestab": 6420,
      "Ġapr": 6421,
      "Ġangle": 6422,
      "aving": 6423,
      "Ġriley": 6424,
      "Ġproperly": 6425,
      "Ġprick": 6426,
      "Ġsucking": 6427,
      "Ġshouldnt": 6428,
      "Ġswollen": 6429,
      "Ġfu": 6430,
      "Ġblocks": 6431,
      "iger": 6432,
      "Ġwaters": 6433,
      "immed": 6434,
      "Ġrate": 6435,
      "unting": 6436,
      "ada": 6437,
      "etr": 6438,
      "Ġtrembled": 6439,
      "Ġissues": 6440,
      "event": 6441,
      "Ġpercent": 6442,
      "Ġbackwards": 6443,
      "Ġloaded": 6444,
      "Ġached": 6445,
      "Ġsmirk": 6446,
      "Ġjeremy": 6447,
      "Ġplung": 6448,
      "Ġunb": 6449,
      "cons": 6450,
      "aline": 6451,
      "Ġappears": 6452,
      "Ġuseless": 6453,
      "Ġchildhood": 6454,
      "Ġscare": 6455,
      "mic": 6456,
      "lig": 6457,
      "Ġdipped": 6458,
      "Ġdanny": 6459,
      "Ġlaptop": 6460,
      "ua": 6461,
      "Ġdeadly": 6462,
      "Ġviolent": 6463,
      "Ġfrustrated": 6464,
      "youve": 6465,
      "Ġaloud": 6466,
      "Ġincident": 6467,
      "Ġyawn": 6468,
      "inside": 6469,
      "Ġbits": 6470,
      "Ġunsure": 6471,
      "Ġwaking": 6472,
      "Ġdivor": 6473,
      "Ġproved": 6474,
      "Ġcaptured": 6475,
      "Ġflex": 6476,
      "Ġtips": 6477,
      "Ġmechan": 6478,
      "Ġbacks": 6479,
      "Ġeleg": 6480,
      "Ġhay": 6481,
      "Ġdripping": 6482,
      "Ġshifting": 6483,
      "eventually": 6484,
      "Ġbrings": 6485,
      "ata": 6486,
      "Ġdram": 6487,
      "Ġsite": 6488,
      "Ġconsequ": 6489,
      "Ġbald": 6490,
      "Ġsurge": 6491,
      "Ġfuneral": 6492,
      "Ġstirred": 6493,
      "Ġcourty": 6494,
      "Ġsmoot": 6495,
      "Ġsuffer": 6496,
      "rell": 6497,
      "Ġtyp": 6498,
      "Ġradi": 6499,
      "Ġcrouched": 6500,
      "Ġordinary": 6501,
      "Ġscient": 6502,
      "Ġpizza": 6503,
      "Ġabsor": 6504,
      "Ġwizard": 6505,
      "Ġsupplies": 6506,
      "Ġshortly": 6507,
      "Ġmarie": 6508,
      "Ġsang": 6509,
      "Ġinnoc": 6510,
      "Ġarrival": 6511,
      "Ġfled": 6512,
      "Ġimper": 6513,
      "Ġintensity": 6514,
      "mn": 6515,
      "Ġclung": 6516,
      "Ġsheer": 6517,
      "Ġknuckles": 6518,
      "gree": 6519,
      "Ġtale": 6520,
      "Ġamerica": 6521,
      "Ġsalt": 6522,
      "Ġlifet": 6523,
      "Ġreput": 6524,
      "Ġfalse": 6525,
      "Ġuseful": 6526,
      "Ġchaos": 6527,
      "zie": 6528,
      "attering": 6529,
      "Ġarmed": 6530,
      "Ġmack": 6531,
      "Ġkings": 6532,
      "hole": 6533,
      "ships": 6534,
      "Ġsuffering": 6535,
      "Ġanne": 6536,
      "Ġsought": 6537,
      "Ġmarble": 6538,
      "Ġhurts": 6539,
      "Ġroger": 6540,
      "Ġintroduced": 6541,
      "Ġdee": 6542,
      "gray": 6543,
      "Ġrealm": 6544,
      "seth": 6545,
      "Ġsigned": 6546,
      "cont": 6547,
      "Ġgentleman": 6548,
      "Ġcotton": 6549,
      "Ġexcellent": 6550,
      "Ġthir": 6551,
      "Ġol": 6552,
      "Ġentry": 6553,
      "rous": 6554,
      "Ġboring": 6555,
      "Ġexchanged": 6556,
      "white": 6557,
      "Ġjulie": 6558,
      "Ġsweater": 6559,
      "Ġsteam": 6560,
      "Ġeggs": 6561,
      "Ġfields": 6562,
      "Ġcurls": 6563,
      "Ġslumped": 6564,
      "apt": 6565,
      "Ġamy": 6566,
      "Ġhuff": 6567,
      "hum": 6568,
      "ano": 6569,
      "Ġutterly": 6570,
      "Ġcorn": 6571,
      "Ġbun": 6572,
      "Ġswinging": 6573,
      "Ġheated": 6574,
      "Ġchuckle": 6575,
      "Ġrit": 6576,
      "Ġcheap": 6577,
      "Ġcrushed": 6578,
      "Ġrefuse": 6579,
      "Ġsouther": 6580,
      "Ġtrevor": 6581,
      "Ġtwisting": 6582,
      "Ġwagon": 6583,
      "Ġskill": 6584,
      "Ġcharm": 6585,
      "Ġfears": 6586,
      "Ġsticking": 6587,
      "Ġloos": 6588,
      "Ġped": 6589,
      "Ġscrewed": 6590,
      "Ġbiting": 6591,
      "Ġbranch": 6592,
      "Ġpinned": 6593,
      "Ġclutching": 6594,
      "Ġpond": 6595,
      "Ġflung": 6596,
      "Ġclient": 6597,
      "Ġmoonlight": 6598,
      "Ġcolin": 6599,
      "mal": 6600,
      "Ġedward": 6601,
      "Ġchances": 6602,
      "Ġ18": 6603,
      "hope": 6604,
      "Ġsmirked": 6605,
      "Ġcarriage": 6606,
      "Ġdelivered": 6607,
      "hor": 6608,
      "omi": 6609,
      "Ġresponsibility": 6610,
      "Ġsuffe": 6611,
      "Ġpattern": 6612,
      "bbie": 6613,
      "Ġengland": 6614,
      "having": 6615,
      "Ġsucceed": 6616,
      "Ġviolence": 6617,
      "Ġsafely": 6618,
      "Ġshaft": 6619,
      "Ġgn": 6620,
      "Ġfork": 6621,
      "rin": 6622,
      "Ġcarved": 6623,
      "Ġhearts": 6624,
      "Ġcurved": 6625,
      "Ġseparated": 6626,
      "Ġexhaust": 6627,
      "make": 6628,
      "Ġwipe": 6629,
      "Ġguitar": 6630,
      "Ġlesson": 6631,
      "Ġweakness": 6632,
      "made": 6633,
      "Ġderek": 6634,
      "away": 6635,
      "Ġplanted": 6636,
      "Ġmexic": 6637,
      "words": 6638,
      "Ġtraveling": 6639,
      "Ġtyler": 6640,
      "Ġstark": 6641,
      "Ġja": 6642,
      "Ġankle": 6643,
      "eered": 6644,
      "Ġfranc": 6645,
      "Ġcott": 6646,
      "Ġblowing": 6647,
      "Ġcourtyard": 6648,
      "Ġending": 6649,
      "Ġencoun": 6650,
      "Ġwarn": 6651,
      "mind": 6652,
      "Ġatl": 6653,
      "Ġfairy": 6654,
      "Ġmurdered": 6655,
      "Ġsignal": 6656,
      "Ġtries": 6657,
      "antha": 6658,
      "Ġimpact": 6659,
      "Ġpear": 6660,
      "Ġkevin": 6661,
      "gent": 6662,
      "Ġswiftly": 6663,
      "Ġcooking": 6664,
      "Ġappropri": 6665,
      "Ġgran": 6666,
      "Ġcrawl": 6667,
      "Ġtuck": 6668,
      "Ġwerewolf": 6669,
      "rena": 6670,
      "frank": 6671,
      "dra": 6672,
      "Ġrounded": 6673,
      "Ġpreferred": 6674,
      "ko": 6675,
      "Ġkal": 6676,
      "Ġlump": 6677,
      "becca": 6678,
      "ailed": 6679,
      "Ġdrift": 6680,
      "Ġwildly": 6681,
      "apes": 6682,
      "Ġmelissa": 6683,
      "Ġbetr": 6684,
      "Ġrocked": 6685,
      "aa": 6686,
      "Ġsuffered": 6687,
      "Ġquestioned": 6688,
      "Ġtheory": 6689,
      "Ġmanager": 6690,
      "Ġjournal": 6691,
      "Ġoverwhelming": 6692,
      "Ġelement": 6693,
      "Ġdiscussion": 6694,
      "Ġarrog": 6695,
      "Ġmane": 6696,
      "Ġcontained": 6697,
      "Ġador": 6698,
      "Ġcentury": 6699,
      "joe": 6700,
      "alie": 6701,
      "Ġscowled": 6702,
      "shine": 6703,
      "Ġsophie": 6704,
      "Ġmysterious": 6705,
      "Ġhealing": 6706,
      "Ġsignific": 6707,
      "Ġprepare": 6708,
      "Ġbottles": 6709,
      "Ġobserved": 6710,
      "Ġcries": 6711,
      "Ġbol": 6712,
      "Ġpounds": 6713,
      "Ġshone": 6714,
      "Ġphysically": 6715,
      "Ġtradition": 6716,
      "veled": 6717,
      "enses": 6718,
      "Ġvisited": 6719,
      "Ġvictoria": 6720,
      "Ġaltern": 6721,
      "Ġpir": 6722,
      "Ġprior": 6723,
      "Ġgrimaced": 6724,
      "wow": 6725,
      "Ġforeign": 6726,
      "Ġcontinues": 6727,
      "Ġbased": 6728,
      "Ġhomes": 6729,
      "Ġlands": 6730,
      "Ġspreading": 6731,
      "Ġhopes": 6732,
      "Ġsubst": 6733,
      "Ġsets": 6734,
      "nifer": 6735,
      "Ġmiserable": 6736,
      "Ġshelter": 6737,
      "Ġjackson": 6738,
      "Ġtoilet": 6739,
      "Ġoblig": 6740,
      "Ġdistinct": 6741,
      "Ġdaily": 6742,
      "anta": 6743,
      "Ġprotected": 6744,
      "Ġringing": 6745,
      "Ġjax": 6746,
      "berry": 6747,
      "Ġwire": 6748,
      "Ġdreamed": 6749,
      "cony": 6750,
      "Ġhannah": 6751,
      "Ġeduc": 6752,
      "Ġpony": 6753,
      "Ġgreatest": 6754,
      "Ġblocked": 6755,
      "Ġplates": 6756,
      "Ġgavin": 6757,
      "kate": 6758,
      "logan": 6759,
      "Ġhighly": 6760,
      "Ġfinds": 6761,
      "Ġaccompan": 6762,
      "norm": 6763,
      "Ġlege": 6764,
      "Ġbee": 6765,
      "Ġgoss": 6766,
      "Ġselfish": 6767,
      "ula": 6768,
      "Ġneeding": 6769,
      "inged": 6770,
      "logy": 6771,
      "Ġterm": 6772,
      "Ġsusan": 6773,
      "Ġjesse": 6774,
      "Ġfigures": 6775,
      "Ġcaleb": 6776,
      "Ġbik": 6777,
      "Ġholes": 6778,
      "hip": 6779,
      "fine": 6780,
      "acc": 6781,
      "Ġrod": 6782,
      "Ġquinn": 6783,
      "half": 6784,
      "asant": 6785,
      "Ġapple": 6786,
      "inte": 6787,
      "Ġservant": 6788,
      "Ġwhim": 6789,
      "Ġshimm": 6790,
      "Ġcharming": 6791,
      "Ġmont": 6792,
      "Ġbend": 6793,
      "Ġhelen": 6794,
      "Ġgloves": 6795,
      "Ġpuzzled": 6796,
      "julia": 6797,
      "giving": 6798,
      "iforn": 6799,
      "mble": 6800,
      "box": 6801,
      "izes": 6802,
      "chief": 6803,
      "Ġrack": 6804,
      "happy": 6805,
      "Ġtin": 6806,
      "Ġbold": 6807,
      "Ġtooth": 6808,
      "Ġstrained": 6809,
      "ulating": 6810,
      "Ġral": 6811,
      "cha": 6812,
      "del": 6813,
      "Ġdirected": 6814,
      "Ġvig": 6815,
      "Ġmelo": 6816,
      "wom": 6817,
      "low": 6818,
      "Ġpreparing": 6819,
      "Ġstiffened": 6820,
      "uted": 6821,
      "Ġpatch": 6822,
      "Ġknot": 6823,
      "Ġbalcony": 6824,
      "Ġdrained": 6825,
      "Ġincluded": 6826,
      "Ġroutine": 6827,
      "Ġnecklace": 6828,
      "hin": 6829,
      "idently": 6830,
      "Ġenv": 6831,
      "Ġcurtain": 6832,
      "Ġstew": 6833,
      "Ġsco": 6834,
      "cat": 6835,
      "Ġschedule": 6836,
      "Ġweve": 6837,
      "Ġcentral": 6838,
      "Ġunderwear": 6839,
      "Ġhank": 6840,
      "non": 6841,
      "Ġcompared": 6842,
      "omeday": 6843,
      "oon": 6844,
      "Ġslave": 6845,
      "Ġprinc": 6846,
      "Ġmodel": 6847,
      "Ġrome": 6848,
      "Ġgrabs": 6849,
      "Ġlimp": 6850,
      "Ġgrasped": 6851,
      "Ġnerve": 6852,
      "Ġbron": 6853,
      "Ġridge": 6854,
      "natural": 6855,
      "Ġnewspaper": 6856,
      "Ġcircled": 6857,
      "jamie": 6858,
      "Ġkyle": 6859,
      "Ġkelly": 6860,
      "chris": 6861,
      "resh": 6862,
      "Ġlane": 6863,
      "Ġbore": 6864,
      "Ġsoothing": 6865,
      "Ġscratched": 6866,
      "Ġequally": 6867,
      "power": 6868,
      "Ġbless": 6869,
      "Ġrepeat": 6870,
      "Ġlatest": 6871,
      "Ġavoiding": 6872,
      "Ġbounced": 6873,
      "Ġmartin": 6874,
      "Ġtack": 6875,
      "Ġmagazine": 6876,
      "Ġhooked": 6877,
      "Ġrolls": 6878,
      "Ġclever": 6879,
      "Ġspecific": 6880,
      "Ġreluctantly": 6881,
      "Ġsouthern": 6882,
      "Ġstaircase": 6883,
      "Ġimmediate": 6884,
      "Ġexample": 6885,
      "amm": 6886,
      "Ġprivacy": 6887,
      "Ġtwins": 6888,
      "Ġflowed": 6889,
      "luke": 6890,
      "Ġmason": 6891,
      "Ġhammer": 6892,
      "gir": 6893,
      "Ġicy": 6894,
      "Ġcaliforn": 6895,
      "Ġtaller": 6896,
      "jac": 6897,
      "Ġintently": 6898,
      "swe": 6899,
      "Ġmath": 6900,
      "Ġfever": 6901,
      "Ġbabies": 6902,
      "Ġcandy": 6903,
      "Ġlor": 6904,
      "Ġpursu": 6905,
      "Ġslim": 6906,
      "Ġsorts": 6907,
      "Ġalph": 6908,
      "Ġmessages": 6909,
      "going": 6910,
      "Ġwigg": 6911,
      "Ġdock": 6912,
      "Ġsarc": 6913,
      "Ġdex": 6914,
      "Ġspear": 6915,
      "uming": 6916,
      "Ġreflected": 6917,
      "Ġcoinc": 6918,
      "Ġinvitation": 6919,
      "Ġtast": 6920,
      "Ġexplosion": 6921,
      "Ġtearing": 6922,
      "Ġduck": 6923,
      "Ġtraced": 6924,
      "Ġjenny": 6925,
      "Ġachie": 6926,
      "Ġscout": 6927,
      "prom": 6928,
      "Ġtrigger": 6929,
      "mine": 6930,
      "Ġdoctors": 6931,
      "Ġcrashing": 6932,
      "rolling": 6933,
      "Ġwherever": 6934,
      "josh": 6935,
      "Ġprayed": 6936,
      "iveness": 6937,
      "Ġacknowled": 6938,
      "Ġbuttons": 6939,
      "Ġinterior": 6940,
      "Ġanxiety": 6941,
      "ez": 6942,
      "vict": 6943,
      "Ġsuccessful": 6944,
      "lers": 6945,
      "nn": 6946,
      "phy": 6947,
      "Ġspraw": 6948,
      "Ġleads": 6949,
      "Ġchloe": 6950,
      "ww": 6951,
      "unless": 6952,
      "pain": 6953,
      "Ġobsc": 6954,
      "~~": 6955,
      "Ġtalent": 6956,
      "Ġinterrupt": 6957,
      "Ġlegal": 6958,
      "Ġconcentrate": 6959,
      "Ġdegree": 6960,
      "Ġnostr": 6961,
      "Ġcollection": 6962,
      "Ġscarlet": 6963,
      "Ġengage": 6964,
      "Ġspider": 6965,
      "Ġdevelop": 6966,
      "today": 6967,
      "Ġgripping": 6968,
      "otch": 6969,
      "Ġeurope": 6970,
      "Ġswip": 6971,
      "Ġswimming": 6972,
      "Ġexhaled": 6973,
      "Ġfinn": 6974,
      "hello": 6975,
      "Ġmeasure": 6976,
      "Ġscience": 6977,
      "Ġslick": 6978,
      "Ġfloated": 6979,
      "Ġgarb": 6980,
      "azing": 6981,
      "Ġtangled": 6982,
      "kind": 6983,
      "etic": 6984,
      "fying": 6985,
      "Ġdise": 6986,
      "Ġreputation": 6987,
      "Ġrevenge": 6988,
      "Ġheel": 6989,
      "Ġjustice": 6990,
      "jim": 6991,
      "Ġkidna": 6992,
      "matt": 6993,
      "nec": 6994,
      "cor": 6995,
      "Ġladder": 6996,
      "Ġlifetime": 6997,
      "Ġkane": 6998,
      "Ġstretching": 6999,
      "Ġefforts": 7000,
      "Ġplus": 7001,
      "Ġslap": 7002,
      "ros": 7003,
      "Ġpretended": 7004,
      "Ġswitched": 7005,
      "Ġengaged": 7006,
      "Ġquestioning": 7007,
      "Ġseeking": 7008,
      "Ġprotective": 7009,
      "emily": 7010,
      "Ġexception": 7011,
      "Ġpanting": 7012,
      "Ġrequire": 7013,
      "retched": 7014,
      "zane": 7015,
      "Ġexerc": 7016,
      "Ġhaz": 7017,
      "Ġmonsters": 7018,
      "Ġfund": 7019,
      "Ġconsciousness": 7020,
      "Ġintimate": 7021,
      "Ġcases": 7022,
      "born": 7023,
      "Ġcrush": 7024,
      "ibilities": 7025,
      "Ġborrow": 7026,
      "knowing": 7027,
      "Ġcalifornia": 7028,
      "also": 7029,
      "Ġpatrick": 7030,
      "arian": 7031,
      "bone": 7032,
      "youll": 7033,
      "lay": 7034,
      "dev": 7035,
      "Ġdescended": 7036,
      "Ġkay": 7037,
      "Ġsniffed": 7038,
      "Ġkylie": 7039,
      "oy": 7040,
      "Ġbark": 7041,
      "Ġdared": 7042,
      "Ġsmells": 7043,
      "Ġprotecting": 7044,
      "Ġmistress": 7045,
      "rant": 7046,
      "covered": 7047,
      "Ġmuffled": 7048,
      "rachel": 7049,
      "Ġflip": 7050,
      "Ġangels": 7051,
      "Ġjobs": 7052,
      "Ġfilm": 7053,
      "Ġforb": 7054,
      "Ġclit": 7055,
      "Ġsteep": 7056,
      "ops": 7057,
      "mill": 7058,
      "Ġfunction": 7059,
      "Ġcounted": 7060,
      "bie": 7061,
      "Ġtoe": 7062,
      "Ġsuite": 7063,
      "Ġawa": 7064,
      "Ġjones": 7065,
      "Ġscars": 7066,
      "Ġinev": 7067,
      "Ġflee": 7068,
      "Ġdescribed": 7069,
      "Ġbride": 7070,
      "Ġunit": 7071,
      "Ġmuse": 7072,
      "Ġindicated": 7073,
      "Ġlocated": 7074,
      "Ġpersu": 7075,
      "Ġprayer": 7076,
      "Ġtate": 7077,
      "Ġwiping": 7078,
      "Ġdishes": 7079,
      "Ġpunishment": 7080,
      "Ġankles": 7081,
      "idy": 7082,
      "tre": 7083,
      "Ġcups": 7084,
      "arms": 7085,
      "Ġfleet": 7086,
      "Ġbrid": 7087,
      "ounded": 7088,
      "onel": 7089,
      "Ġdefeat": 7090,
      "Ġshaky": 7091,
      "Ġranch": 7092,
      "iel": 7093,
      "Ġlid": 7094,
      "Ġsandwich": 7095,
      "gus": 7096,
      "Ġshelf": 7097,
      "Ġvalue": 7098,
      "richard": 7099,
      "Ġmentally": 7100,
      "Ġreward": 7101,
      "Ġinvestigation": 7102,
      "Ġinstructions": 7103,
      "Ġsoaked": 7104,
      "Ġcommanded": 7105,
      "Ġpopular": 7106,
      "Ġcurrently": 7107,
      "Ġsqueezing": 7108,
      "Ġcomforting": 7109,
      "umph": 7110,
      "Ġflared": 7111,
      "Ġpitch": 7112,
      "Ġslamming": 7113,
      "Ġhanding": 7114,
      "Ġaisle": 7115,
      "Ġeh": 7116,
      "Ġemph": 7117,
      "Ġcalc": 7118,
      "Ġgig": 7119,
      "erald": 7120,
      "Ġdressing": 7121,
      "aunt": 7122,
      "Ġflickered": 7123,
      "Ġfortune": 7124,
      "agne": 7125,
      "Ġsacrifice": 7126,
      "aser": 7127,
      "inde": 7128,
      "Ġmanip": 7129,
      "bag": 7130,
      "umpled": 7131,
      "Ġrav": 7132,
      "Ġintri": 7133,
      "isk": 7134,
      "Ġgoddamn": 7135,
      "mbled": 7136,
      "far": 7137,
      "Ġentering": 7138,
      "olded": 7139,
      "Ġveget": 7140,
      "Ġoutfit": 7141,
      "Ġsubtle": 7142,
      "Ġimpressive": 7143,
      "ni": 7144,
      "Ġwrinkled": 7145,
      "Ġassault": 7146,
      "inge": 7147,
      "iple": 7148,
      "cassie": 7149,
      "antically": 7150,
      "Ġcaring": 7151,
      "Ġsenior": 7152,
      "Ġhits": 7153,
      "Ġpaw": 7154,
      "ums": 7155,
      "moving": 7156,
      "Ġcurtains": 7157,
      "Ġerection": 7158,
      "Ġlect": 7159,
      "ulations": 7160,
      "holy": 7161,
      "jared": 7162,
      "uten": 7163,
      "Ġrealised": 7164,
      "atter": 7165,
      "ii": 7166,
      "Ġflush": 7167,
      "Ġchannel": 7168,
      "Ġcorpse": 7169,
      "Ġthirteen": 7170,
      "gage": 7171,
      "Ġsmoking": 7172,
      "thy": 7173,
      "Ġoccupied": 7174,
      "iar": 7175,
      "Ġshallow": 7176,
      "Ġconven": 7177,
      "Ġblush": 7178,
      "Ġcottage": 7179,
      "Ġadop": 7180,
      "Ġblushed": 7181,
      "dis": 7182,
      "pass": 7183,
      "Ġload": 7184,
      "Ġgrumbled": 7185,
      "Ġglowed": 7186,
      "Ġeternity": 7187,
      "ody": 7188,
      "always": 7189,
      "hem": 7190,
      "Ġles": 7191,
      "Ġfantasy": 7192,
      "iona": 7193,
      "aude": 7194,
      "Ġdecisions": 7195,
      "Ġavoided": 7196,
      "Ġfurrow": 7197,
      "Ġterritory": 7198,
      "Ġtransfer": 7199,
      "anting": 7200,
      "Ġbarrel": 7201,
      "Ġauthority": 7202,
      "Ġrein": 7203,
      "Ġhopefully": 7204,
      "Ġdarker": 7205,
      "Ġtexas": 7206,
      "Ġlandsc": 7207,
      "rad": 7208,
      "Ġceremony": 7209,
      "Ġdescribe": 7210,
      "Ġalien": 7211,
      "Ġassign": 7212,
      "Ġoptions": 7213,
      "Ġjoking": 7214,
      "Ġparties": 7215,
      "Ġzombies": 7216,
      "Ġcush": 7217,
      "Ġperf": 7218,
      "grand": 7219,
      "Ġbrandon": 7220,
      "abor": 7221,
      "Ġlaying": 7222,
      "Ġmeas": 7223,
      "Ġdreaming": 7224,
      "Ġstrangely": 7225,
      "Ġreplace": 7226,
      "Ġplayer": 7227,
      "iration": 7228,
      "Ġpersonally": 7229,
      "ront": 7230,
      "Ġjill": 7231,
      "Ġaug": 7232,
      "guard": 7233,
      "Ġproduct": 7234,
      "Ġexamined": 7235,
      "itching": 7236,
      "Ġadrian": 7237,
      "Ġfourteen": 7238,
      "Ġric": 7239,
      "Ġhelmet": 7240,
      "Ġtwitched": 7241,
      "Ġglaring": 7242,
      "Ġcautiously": 7243,
      "alian": 7244,
      "Ġannie": 7245,
      "Ġjuice": 7246,
      "Ġmetho": 7247,
      "rain": 7248,
      "Ġworrying": 7249,
      "Ġoccasionally": 7250,
      "abby": 7251,
      "Ġpete": 7252,
      "Ġdip": 7253,
      "Ġchicago": 7254,
      "tim": 7255,
      "Ġgossip": 7256,
      "acles": 7257,
      "Ġflashlight": 7258,
      "Ġsinking": 7259,
      "Ġaimed": 7260,
      "Ġthus": 7261,
      "Ġalongside": 7262,
      "Ġjustin": 7263,
      "Ġobliv": 7264,
      "Ġchains": 7265,
      "Ġflor": 7266,
      "Ġfrowning": 7267,
      "within": 7268,
      "Ġnostrils": 7269,
      "Ġsty": 7270,
      "Ġstructure": 7271,
      "Ġadventure": 7272,
      "Ġrecalled": 7273,
      "Ġclasped": 7274,
      "Ġcitiz": 7275,
      "Ġasse": 7276,
      "Ġviv": 7277,
      "inate": 7278,
      "Ġatop": 7279,
      "Ġinsult": 7280,
      "Ġchim": 7281,
      "Ġchasing": 7282,
      "Ġclick": 7283,
      "Ġmatching": 7284,
      "Ġgrandma": 7285,
      "Ġaidan": 7286,
      "mend": 7287,
      "Ġincreasing": 7288,
      "Ġtat": 7289,
      "Ġgoal": 7290,
      "such": 7291,
      "Ġunlocked": 7292,
      "Ġjudgment": 7293,
      "Ġgrocer": 7294,
      "Ġsab": 7295,
      "Ġbrace": 7296,
      "Ġkellan": 7297,
      "Ġroughly": 7298,
      "Ġempt": 7299,
      "Ġresults": 7300,
      "mates": 7301,
      "Ġcorpor": 7302,
      "Ġdistract": 7303,
      "Ġsaddle": 7304,
      "Ġpine": 7305,
      "annie": 7306,
      "itated": 7307,
      "Ġgrounds": 7308,
      "Ġghosts": 7309,
      "Ġbund": 7310,
      "icide": 7311,
      "ban": 7312,
      "Ġcolt": 7313,
      "Ġjean": 7314,
      "Ġstan": 7315,
      "Ġscre": 7316,
      "Ġtrial": 7317,
      "Ġconfirm": 7318,
      "Ġtitle": 7319,
      "henry": 7320,
      "Ġtriumph": 7321,
      "Ġadding": 7322,
      "Ġcabinet": 7323,
      "Ġscratch": 7324,
      "Ġashamed": 7325,
      "Ġgarrett": 7326,
      "Ġralph": 7327,
      "Ġdraped": 7328,
      "Ġtoast": 7329,
      "Ġbrightly": 7330,
      "Ġbushes": 7331,
      "Ġdwarf": 7332,
      "hur": 7333,
      "Ġree": 7334,
      "Ġcurl": 7335,
      "ava": 7336,
      "zer": 7337,
      "Ġhumili": 7338,
      "Ġseemingly": 7339,
      "icholas": 7340,
      "Ġsorrow": 7341,
      "claire": 7342,
      "Ġblankets": 7343,
      "Ġisa": 7344,
      "Ġmiracle": 7345,
      "agers": 7346,
      "Ġstripped": 7347,
      "Ġmered": 7348,
      "000": 7349,
      "Ġstake": 7350,
      "Ġtossing": 7351,
      "fact": 7352,
      "nan": 7353,
      "Ġstrate": 7354,
      "Ġmeredith": 7355,
      "Ġnotebook": 7356,
      "Ġamongst": 7357,
      "Ġast": 7358,
      "Ġprisoner": 7359,
      "Ġinhaled": 7360,
      "vas": 7361,
      "Ġembarrassment": 7362,
      "Ġlighting": 7363,
      "Ġoccasional": 7364,
      "Ġsteering": 7365,
      "Ġmarched": 7366,
      "Ġroman": 7367,
      "Ġvictory": 7368,
      "oting": 7369,
      "Ġtreasure": 7370,
      "idents": 7371,
      "Ġmajesty": 7372,
      "Ġsquinted": 7373,
      "Ġbuying": 7374,
      "Ġbarked": 7375,
      "Ġpenetr": 7376,
      "Ġgideon": 7377,
      "uments": 7378,
      "Ġrailing": 7379,
      "Ġfeeding": 7380,
      "Ġquality": 7381,
      "later": 7382,
      "ida": 7383,
      "Ġfridge": 7384,
      "Ġbelief": 7385,
      "Ġanton": 7386,
      "Ġunited": 7387,
      "Ġslender": 7388,
      "ardon": 7389,
      "Ġjordan": 7390,
      "Ġfireplace": 7391,
      "Ġfox": 7392,
      "Ġvacation": 7393,
      "Ġpackage": 7394,
      "Ġalexander": 7395,
      "Ġcompass": 7396,
      "enth": 7397,
      "Ġbud": 7398,
      "Ġsipped": 7399,
      "Ġink": 7400,
      "Ġsung": 7401,
      "Ġhorn": 7402,
      "Ġadjusted": 7403,
      "victor": 7404,
      "Ġstrangers": 7405,
      "seven": 7406,
      "Ġsurprisingly": 7407,
      "Ġgroups": 7408,
      "Ġhoarse": 7409,
      "Ġslightest": 7410,
      "Ġregister": 7411,
      "Ġappointment": 7412,
      "Ġcampus": 7413,
      "Ġweep": 7414,
      "Ġcub": 7415,
      "Ġrocky": 7416,
      "ench": 7417,
      "Ġappropriate": 7418,
      "Ġpoked": 7419,
      "Ġvaguely": 7420,
      "hest": 7421,
      "Ġginger": 7422,
      "ification": 7423,
      "Ġdrake": 7424,
      "Ġpropped": 7425,
      "tes": 7426,
      "bon": 7427,
      "daniel": 7428,
      "Ġfading": 7429,
      "Ġrocking": 7430,
      "Ġprotested": 7431,
      "Ġzombie": 7432,
      "Ġquarters": 7433,
      "Ġsob": 7434,
      "gabriel": 7435,
      "Ġbetrayed": 7436,
      "Ġdemanding": 7437,
      "udge": 7438,
      "renaline": 7439,
      "Ġchoices": 7440,
      "sk": 7441,
      "Ġminor": 7442,
      "Ġsettling": 7443,
      "Ġguar": 7444,
      "Ġcreating": 7445,
      "face": 7446,
      "Ġstaggered": 7447,
      "Ġmicro": 7448,
      "faced": 7449,
      "Ġcuff": 7450,
      "door": 7451,
      "Ġflooded": 7452,
      "Ġcontinuing": 7453,
      "Ġtaylor": 7454,
      "Ġholden": 7455,
      "Ġmemor": 7456,
      "Ġborder": 7457,
      "Ġincreased": 7458,
      "blue": 7459,
      "Ġannoying": 7460,
      "Ġnoble": 7461,
      "Ġsunshine": 7462,
      "usive": 7463,
      "Ġmatched": 7464,
      "Ġtug": 7465,
      "istr": 7466,
      "huh": 7467,
      "Ġvelvet": 7468,
      "cam": 7469,
      "Ġsom": 7470,
      "Ġfloors": 7471,
      "Ġzoe": 7472,
      "Ġtorment": 7473,
      "Ġaz": 7474,
      "Ġprey": 7475,
      "icop": 7476,
      "ryn": 7477,
      "Ġkend": 7478,
      "Ġded": 7479,
      "Ġactivity": 7480,
      "Ġhaunted": 7481,
      "mod": 7482,
      "Ġdusty": 7483,
      "thor": 7484,
      "unks": 7485,
      "Ġhatred": 7486,
      "Ġaccur": 7487,
      "Ġnope": 7488,
      "Ġaffair": 7489,
      "Ġgrat": 7490,
      "Ġpeaceful": 7491,
      "mber": 7492,
      "Ġvirt": 7493,
      "dec": 7494,
      "Ġaint": 7495,
      "umes": 7496,
      "Ġintimid": 7497,
      "dan": 7498,
      "Ġdevice": 7499,
      "tled": 7500,
      "making": 7501,
      "Ġjung": 7502,
      "Ġhmm": 7503,
      "Ġbuff": 7504,
      "Ġneatly": 7505,
      "iah": 7506,
      "aughters": 7507,
      "Ġsmug": 7508,
      "Ġworlds": 7509,
      "Ġmeg": 7510,
      "connor": 7511,
      "Ġowen": 7512,
      "Ġ12": 7513,
      "Ġspray": 7514,
      "Ġexciting": 7515,
      "hmm": 7516,
      "Ġsongs": 7517,
      "Ġcandles": 7518,
      "Ġamazed": 7519,
      "Ġfuel": 7520,
      "Ġattracted": 7521,
      "Ġmerc": 7522,
      "Ġbush": 7523,
      "Ġrecords": 7524,
      "Ġmister": 7525,
      "Ġhudd": 7526,
      "Ġwishes": 7527,
      "Ġjeep": 7528,
      "Ġava": 7529,
      "Ġmomentarily": 7530,
      "ission": 7531,
      "pull": 7532,
      "Ġmasc": 7533,
      "Ġgoodness": 7534,
      "helle": 7535,
      "during": 7536,
      "Ġforming": 7537,
      "Ġarguing": 7538,
      "Ġzach": 7539,
      "Ġnational": 7540,
      "Ġblades": 7541,
      "Ġdal": 7542,
      "Ġbreathless": 7543,
      "Ġnuts": 7544,
      "Ġgrunt": 7545,
      "Ġstriking": 7546,
      "Ġhopped": 7547,
      "Ġbliss": 7548,
      "Ġsyl": 7549,
      "wild": 7550,
      "Ġtact": 7551,
      "Ġbothering": 7552,
      "tin": 7553,
      "Ġindust": 7554,
      "Ġsib": 7555,
      "iders": 7556,
      "Ġassure": 7557,
      "pret": 7558,
      "Ġlighter": 7559,
      "stan": 7560,
      "Ġspots": 7561,
      "Ġmelt": 7562,
      "simon": 7563,
      "Ġdownt": 7564,
      "Ġware": 7565,
      "Ġflinched": 7566,
      "Ġshoe": 7567,
      "Ġplants": 7568,
      "Ġcler": 7569,
      "Ġpurchase": 7570,
      "py": 7571,
      "Ġwy": 7572,
      "Ġdaisy": 7573,
      "ishly": 7574,
      "Ġcaf": 7575,
      "Ġtoler": 7576,
      "Ġbullets": 7577,
      "Ġthrobbing": 7578,
      "wr": 7579,
      "dark": 7580,
      "Ġconfront": 7581,
      "Ġmayor": 7582,
      "Ġroads": 7583,
      "Ġirritated": 7584,
      "Ġalice": 7585,
      "Ġunderground": 7586,
      "Ġdaylight": 7587,
      "Ġwallet": 7588,
      "Ġlabor": 7589,
      "Ġmini": 7590,
      "Ġnaturally": 7591,
      "william": 7592,
      "loved": 7593,
      "Ġsurroundings": 7594,
      "Ġlingering": 7595,
      "heard": 7596,
      "Ġreported": 7597,
      "Ġglim": 7598,
      "Ġtoy": 7599,
      "Ġintend": 7600,
      "Ġtugging": 7601,
      "Ġwasted": 7602,
      "Ġalec": 7603,
      "Ġneighbors": 7604,
      "Ġtravis": 7605,
      "Ġsadly": 7606,
      "Ġcombat": 7607,
      "colored": 7608,
      "Ġcuts": 7609,
      "Ġlocker": 7610,
      "obv": 7611,
      "Ġaffect": 7612,
      "Ġdag": 7613,
      "ipper": 7614,
      "Ġsoap": 7615,
      "jose": 7616,
      "Ġexasper": 7617,
      "Ġformal": 7618,
      "jesus": 7619,
      "Ġseized": 7620,
      "Ġdump": 7621,
      "Ġgerman": 7622,
      "nice": 7623,
      "outed": 7624,
      "ressing": 7625,
      "rying": 7626,
      "Ġsupply": 7627,
      "Ġwandering": 7628,
      "Ġawe": 7629,
      "Ġquiver": 7630,
      "Ġcameras": 7631,
      "Ġremar": 7632,
      "Ġdirector": 7633,
      "Ġabilities": 7634,
      "Ġhelicop": 7635,
      "Ġbaseball": 7636,
      "Ġqual": 7637,
      "emet": 7638,
      "Ġcontrolled": 7639,
      "Ġplatform": 7640,
      "Ġ201": 7641,
      "aye": 7642,
      "Ġthanked": 7643,
      "Ġfishing": 7644,
      "Ġdespair": 7645,
      "Ġtroops": 7646,
      "Ġlaurence": 7647,
      "Ġshoving": 7648,
      "Ġchoo": 7649,
      "Ġerup": 7650,
      "Ġreports": 7651,
      "Ġdumped": 7652,
      "Ġsmashed": 7653,
      "enced": 7654,
      "Ġconsumed": 7655,
      "charlie": 7656,
      "Ġwestern": 7657,
      "Ġnoises": 7658,
      "Ġbenefit": 7659,
      "soph": 7660,
      "burn": 7661,
      "Ġsomeday": 7662,
      "Ġsale": 7663,
      "Ġgiggle": 7664,
      "Ġpolitely": 7665,
      "Ġannoy": 7666,
      "istered": 7667,
      "Ġpanicked": 7668,
      "utenant": 7669,
      "Ġblurted": 7670,
      "Ġrights": 7671,
      "inder": 7672,
      "Ġvictims": 7673,
      "quis": 7674,
      "onsense": 7675,
      "Ġgritted": 7676,
      "Ġapproval": 7677,
      "Ġyep": 7678,
      "Ġrelated": 7679,
      "Ġdesigned": 7680,
      "omy": 7681,
      "Ġinitial": 7682,
      "Ġmouths": 7683,
      "Ġdash": 7684,
      "Ġleaped": 7685,
      "Ġteaching": 7686,
      "Ġouter": 7687,
      "Ġsoftened": 7688,
      "Ġlil": 7689,
      "Ġdorm": 7690,
      "Ġangrily": 7691,
      "Ġheadache": 7692,
      "Ġstif": 7693,
      "icating": 7694,
      "Ġcommitted": 7695,
      "Ġseventeen": 7696,
      "Ġrealization": 7697,
      "Ġstatue": 7698,
      "better": 7699,
      "Ġnoticing": 7700,
      "Ġdepths": 7701,
      "Ġnina": 7702,
      "Ġbucket": 7703,
      "Ġinternet": 7704,
      "Ġlick": 7705,
      "Ġjude": 7706,
      "Ġroy": 7707,
      "headed": 7708,
      "Ġemail": 7709,
      "vity": 7710,
      "Ġstained": 7711,
      "Ġblown": 7712,
      "Ġarc": 7713,
      "Ġbecomes": 7714,
      "ware": 7715,
      "Ġkatie": 7716,
      "bra": 7717,
      "listen": 7718,
      "Ġpie": 7719,
      "Ġsixty": 7720,
      "Ġcollected": 7721,
      "Ġfinanc": 7722,
      "Ġsuspicion": 7723,
      "Ġvisiting": 7724,
      "Ġequal": 7725,
      "Ġinstructed": 7726,
      "Ġcounty": 7727,
      "Ġgazing": 7728,
      "Ġargued": 7729,
      "Ġgh": 7730,
      "Ġves": 7731,
      "Ġsmash": 7732,
      "Ġmaria": 7733,
      "Ġencounter": 7734,
      "hon": 7735,
      "Ġconfl": 7736,
      "Ġhem": 7737,
      "weve": 7738,
      "epend": 7739,
      "Ġwhirled": 7740,
      "Ġbritish": 7741,
      "Ġbreaks": 7742,
      "obviously": 7743,
      "Ġtag": 7744,
      "Ġcavern": 7745,
      "kar": 7746,
      "Ġswirling": 7747,
      "Ġdetermination": 7748,
      "lasses": 7749,
      "Ġattempting": 7750,
      "Ġcoughed": 7751,
      "mir": 7752,
      "Ġdante": 7753,
      "atives": 7754,
      "Ġsuv": 7755,
      "Ġmyth": 7756,
      "Ġclapped": 7757,
      "aden": 7758,
      "oliv": 7759,
      "Ġgreeting": 7760,
      "iqu": 7761,
      "iper": 7762,
      "Ġoverwhelmed": 7763,
      "Ġabsence": 7764,
      "Ġ11": 7765,
      "Ġaven": 7766,
      "Ġwrest": 7767,
      "Ġsports": 7768,
      "Ġkin": 7769,
      "Ġfrantic": 7770,
      "Ġhunters": 7771,
      "Ġsyn": 7772,
      "xed": 7773,
      "Ġimpul": 7774,
      "Ġgifts": 7775,
      "Ġdaughters": 7776,
      "Ġrecovered": 7777,
      "abs": 7778,
      "Ġpotato": 7779,
      "Ġglist": 7780,
      "bill": 7781,
      "Ġwhore": 7782,
      "Ġfrantically": 7783,
      "icient": 7784,
      "Ġpushes": 7785,
      "Ġfluttered": 7786,
      "Ġintelligence": 7787,
      "Ġvegas": 7788,
      "Ġcolored": 7789,
      "Ġdeliberately": 7790,
      "rh": 7791,
      "Ġmighty": 7792,
      "Ġgreed": 7793,
      "ndy": 7794,
      "Ġimmortal": 7795,
      "Ġcarter": 7796,
      "Ġsincere": 7797,
      "Ġelegant": 7798,
      "eg": 7799,
      "Ġmour": 7800,
      "Ġcounting": 7801,
      "Ġchap": 7802,
      "Ġbang": 7803,
      "Ġdetect": 7804,
      "sers": 7805,
      "Ġjoining": 7806,
      "Ġgrins": 7807,
      "Ġguardian": 7808,
      "Ġpup": 7809,
      "Ġours": 7810,
      "Ġcraft": 7811,
      "lady": 7812,
      "Ġpave": 7813,
      "garet": 7814,
      "Ġinspect": 7815,
      "Ġdistraction": 7816,
      "Ġneedle": 7817,
      "Ġiv": 7818,
      "Ġdevast": 7819,
      "Ġsquad": 7820,
      "Ġgap": 7821,
      "Ġath": 7822,
      "Ġlouis": 7823,
      "Ġaaron": 7824,
      "Ġtherap": 7825,
      "Ġgau": 7826,
      "Ġpainfully": 7827,
      "Ġsuitcase": 7828,
      "Ġnum": 7829,
      "Ġbeaten": 7830,
      "Ġuneasy": 7831,
      "Ġdod": 7832,
      "Ġdamien": 7833,
      "Ġchampagne": 7834,
      "Ġproduced": 7835,
      "Ġapparent": 7836,
      "rs": 7837,
      "Ġsevere": 7838,
      "Ġhesitate": 7839,
      "urd": 7840,
      "child": 7841,
      "Ġstalked": 7842,
      "ender": 7843,
      "zens": 7844,
      "ige": 7845,
      "Ġtransl": 7846,
      "Ġfade": 7847,
      "Ġraz": 7848,
      "Ġreceive": 7849,
      "Ġmansion": 7850,
      "Ġritual": 7851,
      "Ġsuits": 7852,
      "Ġstefan": 7853,
      "Ġsmack": 7854,
      "second": 7855,
      "olivia": 7856,
      "Ġtherefore": 7857,
      "sean": 7858,
      "Ġleaders": 7859,
      "Ġlashes": 7860,
      "dney": 7861,
      "Ġgentlemen": 7862,
      "aware": 7863,
      "sphere": 7864,
      "sir": 7865,
      "Ġassh": 7866,
      "Ġpeeked": 7867,
      "Ġkeen": 7868,
      "Ġcustomers": 7869,
      "Ġunse": 7870,
      "Ġcombination": 7871,
      "Ġmes": 7872,
      "Ġsnapping": 7873,
      "osition": 7874,
      "annon": 7875,
      "Ġsophia": 7876,
      "Ġbraced": 7877,
      "Ġguided": 7878,
      "za": 7879,
      "inic": 7880,
      "Ġinfluence": 7881,
      "Ġunique": 7882,
      "Ġstabbed": 7883,
      "hot": 7884,
      "Ġspeaks": 7885,
      "Ġskinny": 7886,
      "Ġhut": 7887,
      "Ġbio": 7888,
      "Ġhawk": 7889,
      "Ġbills": 7890,
      "Ġrevel": 7891,
      "Ġages": 7892,
      "Ġunple": 7893,
      "mont": 7894,
      "Ġeyelids": 7895,
      "ifully": 7896,
      "Ġtorso": 7897,
      "jan": 7898,
      "thomas": 7899,
      "Ġthrilled": 7900,
      "Ġpic": 7901,
      "iano": 7902,
      "Ġliber": 7903,
      "Ġpolished": 7904,
      "Ġsprang": 7905,
      "Ġwitches": 7906,
      "Ġurged": 7907,
      "Ġfires": 7908,
      "big": 7909,
      "Ġpathetic": 7910,
      "Ġthirst": 7911,
      "Ġexplore": 7912,
      "Ġmik": 7913,
      "Ġlam": 7914,
      "Ġpilot": 7915,
      "Ġpeering": 7916,
      "Ġmim": 7917,
      "Ġpaced": 7918,
      "Ġphr": 7919,
      "Ġearned": 7920,
      "vey": 7921,
      "spir": 7922,
      "Ġ>": 7923,
      "lily": 7924,
      "Ġlingered": 7925,
      "Ġinvite": 7926,
      "Ġconference": 7927,
      "Ġsanct": 7928,
      "Ġmit": 7929,
      "Ġwheels": 7930,
      "Ġsack": 7931,
      "Ġjimmy": 7932,
      "Ġmounted": 7933,
      "Ġexpand": 7934,
      "Ġwreck": 7935,
      "Ġsympathy": 7936,
      "Ġsighs": 7937,
      "Ġintru": 7938,
      "Ġreminding": 7939,
      "stay": 7940,
      "Ġmedia": 7941,
      "Ġstrands": 7942,
      "Ġreview": 7943,
      "Ġthumbs": 7944,
      "Ġsally": 7945,
      "Ġareas": 7946,
      "Ġcompre": 7947,
      "Ġlicense": 7948,
      "wis": 7949,
      "ixture": 7950,
      "Ġens": 7951,
      "sat": 7952,
      "Ġec": 7953,
      "Ġshred": 7954,
      "Ġtorch": 7955,
      "tonight": 7956,
      "dro": 7957,
      "Ġsometime": 7958,
      "quar": 7959,
      "Ġblinking": 7960,
      "Ġgrac": 7961,
      "Ġzero": 7962,
      "ethe": 7963,
      "Ġslit": 7964,
      "Ġ15": 7965,
      "Ġticket": 7966,
      "Ġnudged": 7967,
      "Ġtemperature": 7968,
      "Ġdisappearing": 7969,
      "Ġtelephone": 7970,
      "Ġcrawling": 7971,
      "aria": 7972,
      "vable": 7973,
      "force": 7974,
      "Ġjungle": 7975,
      "Ġforms": 7976,
      "Ġatmo": 7977,
      "Ġvincent": 7978,
      "Ġming": 7979,
      "''": 7980,
      "Ġdrifting": 7981,
      "occ": 7982,
      "Ġvom": 7983,
      "uttered": 7984,
      "Ġsurrender": 7985,
      "Ġblocking": 7986,
      "Ġscor": 7987,
      "Ġacade": 7988,
      "Ġwider": 7989,
      "Ġstatus": 7990,
      "Ġapology": 7991,
      "Ġsolemn": 7992,
      "Ġterribly": 7993,
      "Ġodds": 7994,
      "Ġstable": 7995,
      "Ġspoon": 7996,
      "Ġprospect": 7997,
      "Ġgravel": 7998,
      "liam": 7999,
      "uish": 8000,
      "ainted": 8001,
      "Ġhorrified": 8002,
      "abelle": 8003,
      "Ġdevon": 8004,
      "Ġreasonable": 8005,
      "Ġelabor": 8006,
      "Ġcuriously": 8007,
      "Ġmuscular": 8008,
      "Ġcompleted": 8009,
      "Ġawhile": 8010,
      "Ġensure": 8011,
      "Ġfacts": 8012,
      "Ġshotgun": 8013,
      "Ġnut": 8014,
      "Ġ$": 8015,
      "Ġtermin": 8016,
      "dri": 8017,
      "stick": 8018,
      "Ġgrade": 8019,
      "Ġtouches": 8020,
      "Ġlimited": 8021,
      "Ġrepresent": 8022,
      "Ġescort": 8023,
      "rat": 8024,
      "Ġreassuring": 8025,
      "Ġacknowledge": 8026,
      "break": 8027,
      "silence": 8028,
      "ifying": 8029,
      "ulty": 8030,
      "Ġnightmares": 8031,
      "Ġtiger": 8032,
      "Ġchurn": 8033,
      "Ġhauled": 8034,
      "Ġsting": 8035,
      "Ġcrimson": 8036,
      "Ġhom": 8037,
      "Ġhyster": 8038,
      "unken": 8039,
      "Ġtempted": 8040,
      "Ġconsequences": 8041,
      "Ġdove": 8042,
      "Ġworries": 8043,
      "Ġvest": 8044,
      "new": 8045,
      "Ġbasic": 8046,
      "Ġnoon": 8047,
      "Ġblouse": 8048,
      "Ġlunged": 8049,
      "Ġlicking": 8050,
      "Ġroses": 8051,
      "Ġadrenaline": 8052,
      "ndry": 8053,
      "Ġserving": 8054,
      "ications": 8055,
      "arded": 8056,
      "Ġsoup": 8057,
      "Ġgriff": 8058,
      "Ġfoul": 8059,
      "Ġlore": 8060,
      "Ġcoward": 8061,
      "Ġanytime": 8062,
      "Ġgasping": 8063,
      "Ġconversations": 8064,
      "Ġcurb": 8065,
      "Ġwithdrew": 8066,
      "Ġdresser": 8067,
      "Ġtrailer": 8068,
      "Ġsket": 8069,
      "Ġsnugg": 8070,
      "Ġknights": 8071,
      "Ġprecisely": 8072,
      "kill": 8073,
      "ending": 8074,
      "Ġforearm": 8075,
      "Ġshudder": 8076,
      "Ġsolution": 8077,
      "apers": 8078,
      "Ġcats": 8079,
      "Ġfiles": 8080,
      "fear": 8081,
      "Ġtopic": 8082,
      "Ġidentity": 8083,
      "estly": 8084,
      "Ġthoughtful": 8085,
      "Ġweb": 8086,
      "uri": 8087,
      "Ġfrancis": 8088,
      "Ġba": 8089,
      "Ġfulf": 8090,
      "Ġjessie": 8091,
      "Ġhyp": 8092,
      "tt": 8093,
      "Ġshouts": 8094,
      "Ġviolently": 8095,
      "Ġdestruction": 8096,
      "deep": 8097,
      "Ġplo": 8098,
      "Ġcrisp": 8099,
      "ssa": 8100,
      "Ġexcl": 8101,
      "Ġmock": 8102,
      "bones": 8103,
      "Ġwhip": 8104,
      "Ġlazy": 8105,
      "Ġnewly": 8106,
      "Ġduncan": 8107,
      "craft": 8108,
      "scar": 8109,
      "Ġscoff": 8110,
      "andrew": 8111,
      "ooled": 8112,
      "Ġsuggestion": 8113,
      "Ġmedicine": 8114,
      "mia": 8115,
      "Ġdesperation": 8116,
      "Ġlifts": 8117,
      "green": 8118,
      "Ġtiss": 8119,
      "lest": 8120,
      "Ġdestination": 8121,
      "Ġpillows": 8122,
      "Ġisaac": 8123,
      "Ġwaiter": 8124,
      "uben": 8125,
      "Ġmaneu": 8126,
      "thought": 8127,
      "Ġschol": 8128,
      "Ġwry": 8129,
      "Ġrows": 8130,
      "twenty": 8131,
      "Ġsealed": 8132,
      "Ġhugh": 8133,
      "Ġfingern": 8134,
      "conn": 8135,
      "Ġpatrol": 8136,
      "sto": 8137,
      "zes": 8138,
      "inity": 8139,
      "Ġleaf": 8140,
      "Ġdwell": 8141,
      "Ġbeam": 8142,
      "Ġattor": 8143,
      "Ġwisdom": 8144,
      "Ġpipe": 8145,
      "zo": 8146,
      "Ġmast": 8147,
      "raction": 8148,
      "Ġannounce": 8149,
      "goti": 8150,
      "thirty": 8151,
      "mart": 8152,
      "ties": 8153,
      "ulted": 8154,
      "Ġtumbled": 8155,
      "Ġplot": 8156,
      "Ġsweeping": 8157,
      "Ġnause": 8158,
      "Ġclients": 8159,
      "Ġlion": 8160,
      "Ġdisgu": 8161,
      "Ġbobby": 8162,
      "Ġpacing": 8163,
      "Ġphilos": 8164,
      "rences": 8165,
      "Ġpiercing": 8166,
      "Ġizzy": 8167,
      "Ġbasically": 8168,
      "trust": 8169,
      "free": 8170,
      "Ġowed": 8171,
      "Ġencourage": 8172,
      "conscious": 8173,
      "Ġaffected": 8174,
      "Ġregarded": 8175,
      "Ġrecon": 8176,
      "gic": 8177,
      "feeling": 8178,
      "Ġdisease": 8179,
      "Ġmiranda": 8180,
      "Ġheather": 8181,
      "chase": 8182,
      "Ġbeasts": 8183,
      "Ġaccompanied": 8184,
      "Ġkil": 8185,
      "fted": 8186,
      "Ġhaven": 8187,
      "Ġshades": 8188,
      "Ġshelves": 8189,
      "Ġlocks": 8190,
      "Ġarticle": 8191,
      "Ġmolly": 8192,
      "Ġinvolve": 8193,
      "Ġinher": 8194,
      "ba": 8195,
      "Ġgained": 8196,
      "sis": 8197,
      "Ġautomatically": 8198,
      "Ġfortun": 8199,
      "Ġdanc": 8200,
      "Ġhovering": 8201,
      "Ġfrightening": 8202,
      "Ġwitnessed": 8203,
      "has": 8204,
      "Ġspy": 8205,
      "blake": 8206,
      "Ġaugust": 8207,
      "Ġnavy": 8208,
      "Ġlonging": 8209,
      "Ġservices": 8210,
      "Ġpleaded": 8211,
      "Ġspecies": 8212,
      "Ġhealed": 8213,
      "Ġfragile": 8214,
      "Ġitalian": 8215,
      "Ġartist": 8216,
      "osure": 8217,
      "Ġvolume": 8218,
      "Ġlieutenant": 8219,
      "Ġfount": 8220,
      "Ġstealing": 8221,
      "rors": 8222,
      "Ġshrugs": 8223,
      "Ġbartender": 8224,
      "Ġmaintain": 8225,
      "Ġanaly": 8226,
      "Ġchewed": 8227,
      "Ġbelieving": 8228,
      "Ġerupted": 8229,
      "Ġdisag": 8230,
      "fight": 8231,
      "Ġfinishing": 8232,
      "Ġlegend": 8233,
      "Ġfolk": 8234,
      "Ġgabe": 8235,
      "Ġsped": 8236,
      "Ġdav": 8237,
      "Ġpsychic": 8238,
      "Ġpron": 8239,
      "clear": 8240,
      "Ġcoin": 8241,
      "Ġstunning": 8242,
      "Ġenthusiasm": 8243,
      "Ġdowntown": 8244,
      "Ġagents": 8245,
      "point": 8246,
      "Ġlaws": 8247,
      "Ġglory": 8248,
      "tan": 8249,
      "Ġtara": 8250,
      "iza": 8251,
      "Ġribb": 8252,
      "Ġseal": 8253,
      "Ġhovered": 8254,
      "Ġsmoothed": 8255,
      "Ġoddly": 8256,
      "Ġsupper": 8257,
      "Ġrecover": 8258,
      "Ġdeserted": 8259,
      "Ġ#": 8260,
      "Ġleon": 8261,
      "tedly": 8262,
      "Ġspencer": 8263,
      "Ġdivorce": 8264,
      "Ġarrested": 8265,
      "Ġoperation": 8266,
      "Ġmessed": 8267,
      "Ġtire": 8268,
      "hers": 8269,
      "Ġmitch": 8270,
      "Ġsober": 8271,
      "Ġwinning": 8272,
      "Ġplunged": 8273,
      "imately": 8274,
      "Ġconsc": 8275,
      "Ġbug": 8276,
      "Ġbould": 8277,
      "Ġexited": 8278,
      "Ġtreatment": 8279,
      "Ġlandscape": 8280,
      "Ġaverage": 8281,
      "Ġbeings": 8282,
      "Ġthoroughly": 8283,
      "icia": 8284,
      "Ġflaw": 8285,
      "Ġinstincts": 8286,
      "entine": 8287,
      "Ġmagnific": 8288,
      "Ġcompound": 8289,
      "Ġmouse": 8290,
      "Ġtechno": 8291,
      "Ġjessica": 8292,
      "uable": 8293,
      "talk": 8294,
      "Ġpolitical": 8295,
      "tling": 8296,
      "Ġtypical": 8297,
      "Ġdeer": 8298,
      "Ġpossession": 8299,
      "rea": 8300,
      "Ġlisa": 8301,
      "Ġramp": 8302,
      "rob": 8303,
      "Ġbarrier": 8304,
      "much": 8305,
      "Ġpermanent": 8306,
      "jay": 8307,
      "Ġpersp": 8308,
      "Ġexplaining": 8309,
      "Ġconcentrated": 8310,
      "Ġsecretary": 8311,
      "iner": 8312,
      "keeper": 8313,
      "Ġatmosphere": 8314,
      "Ġpleading": 8315,
      "Ġunpleasant": 8316,
      "Ġrubber": 8317,
      "berg": 8318,
      "Ġgenerally": 8319,
      "Ġdiscussed": 8320,
      "ester": 8321,
      "Ġwhiskey": 8322,
      "Ġnail": 8323,
      "Ġalpha": 8324,
      "Ġsleeves": 8325,
      "Ġtempt": 8326,
      "Ġabo": 8327,
      "Ġrussian": 8328,
      "Ġseed": 8329,
      "Ġslice": 8330,
      "Ġworthy": 8331,
      "Ġsmacked": 8332,
      "Ġstove": 8333,
      "Ġmisery": 8334,
      "Ġsocks": 8335,
      "derer": 8336,
      "30": 8337,
      "Ġstudio": 8338,
      "Ġexperiment": 8339,
      "ala": 8340,
      "Ġtapping": 8341,
      "Ġexplode": 8342,
      "Ġsamantha": 8343,
      "Ġelectricity": 8344,
      "Ġboston": 8345,
      "Ġgenerous": 8346,
      "bri": 8347,
      "jeff": 8348,
      "Ġdeaf": 8349,
      "Ġtroubled": 8350,
      "Ġster": 8351,
      "Ġripping": 8352,
      "Ġneil": 8353,
      "Ġrecom": 8354,
      "Ġcorrected": 8355,
      "Ġafr": 8356,
      "Ġambul": 8357,
      "Ġpuzzle": 8358,
      "Ġdealt": 8359,
      "Ġelise": 8360,
      "Ġjonas": 8361,
      "Ġcreek": 8362,
      "Ġtess": 8363,
      "dou": 8364,
      "Ġfiring": 8365,
      "Ġwarmed": 8366,
      "Ġfest": 8367,
      "Ġfreezing": 8368,
      "iffany": 8369,
      "eraire": 8370,
      "Ġspilling": 8371,
      "Ġimpatient": 8372,
      "Ġsunglasses": 8373,
      "bbling": 8374,
      "Ġintroduce": 8375,
      "lle": 8376,
      "Ġrigid": 8377,
      "Ġq": 8378,
      "ighing": 8379,
      "Ġoppon": 8380,
      "thur": 8381,
      "Ġsliced": 8382,
      "wolves": 8383,
      "Ġpowder": 8384,
      "Ġjab": 8385,
      "Ġarcher": 8386,
      "Ġanth": 8387,
      "Ġinclined": 8388,
      "fun": 8389,
      "Ġcaroline": 8390,
      "Ġremarked": 8391,
      "certain": 8392,
      "Ġunre": 8393,
      "Ġimagining": 8394,
      "agan": 8395,
      "nels": 8396,
      "erous": 8397,
      "little": 8398,
      "Ġguessing": 8399,
      "Ġdeveloped": 8400,
      "Ġcurves": 8401,
      "Ġrumors": 8402,
      "sebastian": 8403,
      "Ġcrooked": 8404,
      "Ġhugging": 8405,
      "ito": 8406,
      "Ġbouncing": 8407,
      "between": 8408,
      "Ġlucien": 8409,
      "Ġadvanced": 8410,
      "Ġbury": 8411,
      "Ġponytail": 8412,
      "Ġweary": 8413,
      "Ġsaint": 8414,
      "Ġdemonstr": 8415,
      "Ġpiled": 8416,
      "Ġwary": 8417,
      "Ġcurling": 8418,
      "george": 8419,
      "Ġgleaming": 8420,
      "Ġmadness": 8421,
      "Ġpersonality": 8422,
      "ji": 8423,
      "Ġresour": 8424,
      "Ġnorther": 8425,
      "wyl": 8426,
      "Ġchased": 8427,
      "Ġmenu": 8428,
      "Ġcolonel": 8429,
      "Ġswirled": 8430,
      "ooping": 8431,
      "Ġreminder": 8432,
      "Ġintentions": 8433,
      "Ġjewelry": 8434,
      "Ġtease": 8435,
      "uge": 8436,
      "Ġtravell": 8437,
      "Ġeva": 8438,
      "Ġprompt": 8439,
      "Ġunfortunately": 8440,
      "Ġwool": 8441,
      "Ġhelps": 8442,
      "Ġconqu": 8443,
      "Ġfifth": 8444,
      "kim": 8445,
      "riger": 8446,
      "Ġinsides": 8447,
      "athed": 8448,
      "Ġstandard": 8449,
      "Ġsuperior": 8450,
      "Ġwalker": 8451,
      "Ġindepend": 8452,
      "word": 8453,
      "Ġtwir": 8454,
      "Ġleo": 8455,
      "cour": 8456,
      "Ġpinched": 8457,
      "Ġcreepy": 8458,
      "oma": 8459,
      "Ġhardened": 8460,
      "Ġawoke": 8461,
      "julian": 8462,
      "Ġton": 8463,
      "Ġframed": 8464,
      "Ġbarg": 8465,
      "Ġsmoothly": 8466,
      "Ġclam": 8467,
      "Ġhelicopter": 8468,
      "brand": 8469,
      "Ġhumanity": 8470,
      "Ġblows": 8471,
      "Ġmuseum": 8472,
      "Ġrattled": 8473,
      "Ġinse": 8474,
      "Ġmelody": 8475,
      "Ġkel": 8476,
      "Ġtrailing": 8477,
      "smo": 8478,
      "Ġtoll": 8479,
      "jud": 8480,
      "nge": 8481,
      "Ġpatiently": 8482,
      "Ġlimit": 8483,
      "Ġcommented": 8484,
      "Ġpump": 8485,
      "getting": 8486,
      "Ġinfin": 8487,
      "Ġimpatiently": 8488,
      "itors": 8489,
      "Ġclinging": 8490,
      "leton": 8491,
      "Ġcure": 8492,
      "Ġpavement": 8493,
      "ucing": 8494,
      "Ġindian": 8495,
      "Ġlaunched": 8496,
      "adow": 8497,
      "Ġjosie": 8498,
      "Ġrefriger": 8499,
      "Ġfi": 8500,
      "Ġslides": 8501,
      "Ġtessa": 8502,
      "Ġfae": 8503,
      "nesday": 8504,
      "Ġwarehouse": 8505,
      "Ġ/": 8506,
      "Ġmurderer": 8507,
      "Ġjunk": 8508,
      "Ġtube": 8509,
      "Ġthoughtfully": 8510,
      "Ġcompliment": 8511,
      "tony": 8512,
      "gon": 8513,
      "Ġfailure": 8514,
      "ooling": 8515,
      "ivan": 8516,
      "Ġninet": 8517,
      "Ġregarding": 8518,
      "Ġrusty": 8519,
      "sky": 8520,
      "amiliar": 8521,
      "Ġspill": 8522,
      "nine": 8523,
      "Ġblunt": 8524,
      "Ġshuffled": 8525,
      "ola": 8526,
      "inese": 8527,
      "rak": 8528,
      "Ġappreciated": 8529,
      "sive": 8530,
      "Ġassess": 8531,
      "issy": 8532,
      "Ġgarbage": 8533,
      "shaped": 8534,
      "Ġslope": 8535,
      "Ġreporter": 8536,
      "Ġhastily": 8537,
      "Ġphill": 8538,
      "Ġabandon": 8539,
      "Ġcriminal": 8540,
      "Ġpub": 8541,
      "Ġpills": 8542,
      "Ġsteadily": 8543,
      "dia": 8544,
      "Ġbearing": 8545,
      "Ġdrama": 8546,
      "Ġpent": 8547,
      "este": 8548,
      "Ġcentre": 8549,
      "Ġstrolled": 8550,
      "ursday": 8551,
      "Ġselling": 8552,
      "Ġterrifying": 8553,
      "Ġbudd": 8554,
      "aneously": 8555,
      "Ġdescription": 8556,
      "Ġpraying": 8557,
      "Ġknives": 8558,
      "Ġpresented": 8559,
      "Ġemphas": 8560,
      "Ġempire": 8561,
      "Ġafterward": 8562,
      "Ġaura": 8563,
      "Ġdifferently": 8564,
      "Ġdozens": 8565,
      "sara": 8566,
      "Ġirre": 8567,
      "might": 8568,
      "chair": 8569,
      "christian": 8570,
      "Ġrim": 8571,
      "bits": 8572,
      "iser": 8573,
      "care": 8574,
      "Ġnegoti": 8575,
      "Ġscur": 8576,
      "Ġmistakes": 8577,
      "Ġfoyer": 8578,
      "kno": 8579,
      "Ġlasted": 8580,
      "ology": 8581,
      "Ġlayer": 8582,
      "jane": 8583,
      "aina": 8584,
      "Ġbacking": 8585,
      "Ġdisaster": 8586,
      "Ġsales": 8587,
      "Ġscowl": 8588,
      "alf": 8589,
      "Ġthankful": 8590,
      "Ġbump": 8591,
      "Ġslipp": 8592,
      "Ġroots": 8593,
      "Ġlessons": 8594,
      "Ġeyeing": 8595,
      "Ġgregor": 8596,
      "Ġcarl": 8597,
      "Ġlant": 8598,
      "Ġgene": 8599,
      "phil": 8600,
      "Ġtaxi": 8601,
      "Ġpanel": 8602,
      "Ġnotion": 8603,
      "Ġsavage": 8604,
      "Ġtilt": 8605,
      "reed": 8606,
      "itches": 8607,
      "Ġcompanions": 8608,
      "Ġburden": 8609,
      "Ġcorps": 8610,
      "Ġmerch": 8611,
      "Ġdecorated": 8612,
      "Ġspanish": 8613,
      "Ġvicious": 8614,
      "Ġswell": 8615,
      "Ġclamped": 8616,
      "Ġdrunken": 8617,
      "Ġflir": 8618,
      "Ġperched": 8619,
      "Ġminim": 8620,
      "Ġtommy": 8621,
      "Ġbeloved": 8622,
      "Ġconclusion": 8623,
      "Ġcities": 8624,
      "mur": 8625,
      "Ġlauren": 8626,
      "outs": 8627,
      "Ġcapital": 8628,
      "Ġhopeless": 8629,
      "nar": 8630,
      "enn": 8631,
      "Ġcemet": 8632,
      "Ġfrance": 8633,
      "hea": 8634,
      "Ġdisturbing": 8635,
      "Ġcancer": 8636,
      "Ġfid": 8637,
      "Ġpaperwork": 8638,
      "Ġstrict": 8639,
      "Ġonline": 8640,
      "Ġdrivers": 8641,
      "racting": 8642,
      "Ġjap": 8643,
      "gery": 8644,
      "Ġadmin": 8645,
      "Ġavery": 8646,
      "inkling": 8647,
      "Ġattempts": 8648,
      "comfort": 8649,
      "Ġsweaty": 8650,
      "Ġsham": 8651,
      "Ġrabbit": 8652,
      "acting": 8653,
      "Ġscul": 8654,
      "Ġdil": 8655,
      "iments": 8656,
      "Ġconcentration": 8657,
      "Ġfeast": 8658,
      "Ġcemetery": 8659,
      "Ġawak": 8660,
      "vant": 8661,
      "arted": 8662,
      "outhed": 8663,
      "Ġcongr": 8664,
      "Ġsparkling": 8665,
      "Ġtemples": 8666,
      "Ġreplies": 8667,
      "Ġinevitable": 8668,
      "Ġsquat": 8669,
      "Ġsurvival": 8670,
      "outside": 8671,
      "ador": 8672,
      "Ġconcept": 8673,
      "Ġpecul": 8674,
      "Ġoli": 8675,
      "Ġtel": 8676,
      "rom": 8677,
      "Ġdamon": 8678,
      "Ġsandy": 8679,
      "Ġrecip": 8680,
      "Ġhaze": 8681,
      "Ġawkwardly": 8682,
      "Ġtemporary": 8683,
      "Ġpasses": 8684,
      "Ġoc": 8685,
      "Ġnora": 8686,
      "Ġjealousy": 8687,
      "elizabeth": 8688,
      "Ġpole": 8689,
      "Ġeffects": 8690,
      "uther": 8691,
      "Ġrefusing": 8692,
      "ighed": 8693,
      "wed": 8694,
      "Ġtools": 8695,
      "Ġcares": 8696,
      "Ġsev": 8697,
      "Ġoffended": 8698,
      "Ġcaressed": 8699,
      "Ġbrains": 8700,
      "Ġpatter": 8701,
      "Ġcomplained": 8702,
      "Ġalan": 8703,
      "zzle": 8704,
      "Ġcompassion": 8705,
      "ppers": 8706,
      "Ġtortured": 8707,
      "Ġamelia": 8708,
      "Ġdashed": 8709,
      "Ġaccus": 8710,
      "seat": 8711,
      "Ġdies": 8712,
      "arre": 8713,
      "Ġinstinctively": 8714,
      "Ġsuicide": 8715,
      "adin": 8716,
      "Ġromance": 8717,
      "Ġappet": 8718,
      "Ġcharges": 8719,
      "Ġfantastic": 8720,
      "Ġcudd": 8721,
      "Ġignor": 8722,
      "Ġecst": 8723,
      "usk": 8724,
      "Ġaccused": 8725,
      "Ġfinancial": 8726,
      "Ġdiscussing": 8727,
      "Ġcookies": 8728,
      "Ġaust": 8729,
      "Ġnorthern": 8730,
      "leave": 8731,
      "Ġtransport": 8732,
      "sitting": 8733,
      "Ġdrain": 8734,
      "Ġretreated": 8735,
      "ras": 8736,
      "Ġspike": 8737,
      "olved": 8738,
      "Ġgoose": 8739,
      "Ġembarrassing": 8740,
      "Ġinjuries": 8741,
      "Ġdangling": 8742,
      "Ġancest": 8743,
      "Ġboats": 8744,
      "Ġbrutal": 8745,
      "Ġflicker": 8746,
      "Ġneut": 8747,
      "interest": 8748,
      "Ġyer": 8749,
      "Ġreb": 8750,
      "Ġarrows": 8751,
      "Ġearl": 8752,
      "Ġcrumpled": 8753,
      "Ġtheater": 8754,
      "Ġmotorcy": 8755,
      "Ġdelighted": 8756,
      "Ġprincip": 8757,
      "Ġpromises": 8758,
      "Ġmessy": 8759,
      "Ġdizzy": 8760,
      "Ġclip": 8761,
      "Ġdestiny": 8762,
      "Ġregardless": 8763,
      "Ġaxe": 8764,
      "Ġtune": 8765,
      "Ġexercise": 8766,
      "Ġscal": 8767,
      "Ġjennifer": 8768,
      "Ġambulance": 8769,
      "ani": 8770,
      "ays": 8771,
      "urg": 8772,
      "Ġchinese": 8773,
      "aver": 8774,
      "Ġperformance": 8775,
      "Ġsworn": 8776,
      "Ġsticks": 8777,
      "Ġmixture": 8778,
      "Ġwhimp": 8779,
      "Ġheaved": 8780,
      "billy": 8781,
      "Ġdisappro": 8782,
      "Ġbern": 8783,
      "Ġlaundry": 8784,
      "Ġcapture": 8785,
      "Ġfemin": 8786,
      "Ġ]": 8787,
      "Ġisol": 8788,
      "Ġhistor": 8789,
      "Ġsparhawk": 8790,
      "Ġbeds": 8791,
      "Ġdeaths": 8792,
      "Ġovercome": 8793,
      "lined": 8794,
      "mac": 8795,
      "Ġemper": 8796,
      "Ġchad": 8797,
      "Ġfiction": 8798,
      "itute": 8799,
      "Ġbrew": 8800,
      "isha": 8801,
      "Ġnonsense": 8802,
      "Ġmiller": 8803,
      "lucas": 8804,
      "Ġspur": 8805,
      "shall": 8806,
      "Ġmck": 8807,
      "Ġcath": 8808,
      "Ġpreser": 8809,
      "Ġeagerly": 8810,
      "lim": 8811,
      "stra": 8812,
      "Ġdelic": 8813,
      "Ġgloss": 8814,
      "engers": 8815,
      "Ġshorter": 8816,
      "robe": 8817,
      "Ġpartners": 8818,
      "Ġpeculiar": 8819,
      "Ġbin": 8820,
      "asmine": 8821,
      "Ġtops": 8822,
      "Ġlyn": 8823,
      "Ġattraction": 8824,
      "aleb": 8825,
      "Ġlounge": 8826,
      "Ġlind": 8827,
      "Ġinviting": 8828,
      "Ġtrousers": 8829,
      "Ġstorage": 8830,
      "quet": 8831,
      "maggie": 8832,
      "Ġzone": 8833,
      "Ġcane": 8834,
      "Ġnapkin": 8835,
      "Ġeag": 8836,
      "Ġjune": 8837,
      "Ġdisturbed": 8838,
      "Ġdecades": 8839,
      "Ġgradually": 8840,
      "Ġshrieked": 8841,
      "Ġelena": 8842,
      "Ġchoking": 8843,
      "Ġinjury": 8844,
      "Ġclust": 8845,
      "Ġheir": 8846,
      "Ġcaution": 8847,
      "rik": 8848,
      "quick": 8849,
      "Ġrestless": 8850,
      "Ġtee": 8851,
      "robert": 8852,
      "Ġ17": 8853,
      "Ġmonitor": 8854,
      "need": 8855,
      "Ġyel": 8856,
      "ifting": 8857,
      "Ġdismissed": 8858,
      "Ġhire": 8859,
      "istent": 8860,
      "osal": 8861,
      "Ġwashington": 8862,
      "Ġshivering": 8863,
      "geon": 8864,
      "yo": 8865,
      "Ġbruises": 8866,
      "Ġassuming": 8867,
      "Ġdated": 8868,
      "Ġprisoners": 8869,
      "Ġkrist": 8870,
      "Ġsull": 8871,
      "holding": 8872,
      "otes": 8873,
      "Ġrats": 8874,
      "Ġfare": 8875,
      "uffed": 8876,
      "Ġannoyance": 8877,
      "Ġpicks": 8878,
      "Ġproceeded": 8879,
      "Ġunion": 8880,
      "oen": 8881,
      "Ġbewild": 8882,
      "Ġexagger": 8883,
      "Ġhumming": 8884,
      "eddie": 8885,
      "Ġhart": 8886,
      "Ġwatches": 8887,
      "Ġbubble": 8888,
      "Ġteenager": 8889,
      "Ġintelligent": 8890,
      "luckily": 8891,
      "Ġadmire": 8892,
      "Ġpencil": 8893,
      "allas": 8894,
      "Ġstung": 8895,
      "Ġaltogether": 8896,
      "Ġtales": 8897,
      "handed": 8898,
      "Ġshane": 8899,
      "Ġblazing": 8900,
      "entially": 8901,
      "Ġreserved": 8902,
      "Ġinsurance": 8903,
      "Ġworkers": 8904,
      "ijah": 8905,
      "Ġwhimper": 8906,
      "Ġsobbing": 8907,
      "Ġvisitors": 8908,
      "ipher": 8909,
      "ooks": 8910,
      "Ġjapan": 8911,
      "Ġisabella": 8912,
      "Ġmold": 8913,
      "Ġechoing": 8914,
      "Ġshirts": 8915,
      "Ġcyn": 8916,
      "Ġunhappy": 8917,
      "Ġsucks": 8918,
      "abel": 8919,
      "Ġstrap": 8920,
      "Ġcowboy": 8921,
      "squ": 8922,
      "Ġdistrict": 8923,
      "Ġsleepy": 8924,
      "Ġvehicles": 8925,
      "Ġshapes": 8926,
      "Ġsafer": 8927,
      "Ġconver": 8928,
      "Ġbeau": 8929,
      "whether": 8930,
      "pit": 8931,
      "Ġsession": 8932,
      "Ġgruff": 8933,
      "Ġarrogant": 8934,
      "Ġgranted": 8935,
      "Ġfolds": 8936,
      "Ġanch": 8937,
      "Ġsunset": 8938,
      "Ġmurmur": 8939,
      "Ġastr": 8940,
      "Ġyo": 8941,
      "Ġmistaken": 8942,
      "Ġtended": 8943,
      "Ġbrisk": 8944,
      "Ġsage": 8945,
      "Ġharper": 8946,
      "lands": 8947,
      "west": 8948,
      "Ġgag": 8949,
      "ustomed": 8950,
      "Ġseam": 8951,
      "flies": 8952,
      "Ġstreaming": 8953,
      "Ġfantas": 8954,
      "Ġbites": 8955,
      "uk": 8956,
      "Ġbackyard": 8957,
      "Ġthrill": 8958,
      "Ġincredulous": 8959,
      "master": 8960,
      "help": 8961,
      "Ġtoby": 8962,
      "Ġsplin": 8963,
      "Ġdispl": 8964,
      "Ġsacred": 8965,
      "Ġassassin": 8966,
      "Ġsock": 8967,
      "brian": 8968,
      "Ġnicholas": 8969,
      "Ġcongrat": 8970,
      "eron": 8971,
      "Ġcomments": 8972,
      "Ġexhaustion": 8973,
      "Ġliar": 8974,
      "Ġuns": 8975,
      "Ġcondom": 8976,
      "uty": 8977,
      "unte": 8978,
      "fits": 8979,
      "Ġloyalty": 8980,
      "Ġdresses": 8981,
      "angle": 8982,
      "Ġlovers": 8983,
      "ceded": 8984,
      "Ġresolve": 8985,
      "Ġinward": 8986,
      "Ġrational": 8987,
      "Ġka": 8988,
      "forming": 8989,
      "agon": 8990,
      "Ġdj": 8991,
      "Ġpractical": 8992,
      "Ġgenuinely": 8993,
      "Ġvaluable": 8994,
      "Ġportal": 8995,
      "Ġhuddled": 8996,
      "Ġrafe": 8997,
      "kell": 8998,
      "Ġrefrigerator": 8999,
      "Ġmyst": 9000,
      "Ġamid": 9001,
      "Ġbac": 9002,
      "Ġchips": 9003,
      "Ġadvance": 9004,
      "Ġpartially": 9005,
      "Ġny": 9006,
      "Ġfaintly": 9007,
      "angel": 9008,
      "Ġkinda": 9009,
      "Ġjunior": 9010,
      "Ġwander": 9011,
      "Ġshay": 9012,
      "Ġslack": 9013,
      "lou": 9014,
      "Ġfiercely": 9015,
      "kers": 9016,
      "Ġindul": 9017,
      "Ġpierced": 9018,
      "Ġcasting": 9019,
      "Ġfiery": 9020,
      "Ġguarant": 9021,
      "Ġwax": 9022,
      "Ġsoil": 9023,
      "Ġtests": 9024,
      "unlike": 9025,
      "Ġprepar": 9026,
      "Ġswayed": 9027,
      "Ġthud": 9028,
      "Ġsensual": 9029,
      "usually": 9030,
      "Ġsalad": 9031,
      "Ġcrushing": 9032,
      "amy": 9033,
      "thinking": 9034,
      "acity": 9035,
      "name": 9036,
      "Ġpiano": 9037,
      "Ġguarded": 9038,
      "Ġconfess": 9039,
      "hou": 9040,
      "Ġfbi": 9041,
      "ader": 9042,
      "Ġblackness": 9043,
      "Ġcherry": 9044,
      "noah": 9045,
      "Ġgarion": 9046,
      "Ġcri": 9047,
      "wa": 9048,
      "Ġfurrowed": 9049,
      "wan": 9050,
      "Ġshaped": 9051,
      "Ġchip": 9052,
      "Ġguts": 9053,
      "Ġcain": 9054,
      "Ġslaves": 9055,
      "Ġinterrog": 9056,
      "Ġthursday": 9057,
      "iffe": 9058,
      "Ġmadame": 9059,
      "Ġbruised": 9060,
      "Ġreturns": 9061,
      "Ġdollar": 9062,
      "Ġenviron": 9063,
      "Ġgolf": 9064,
      "Ġbolted": 9065,
      "fif": 9066,
      "Ġbunk": 9067,
      "Ġskipped": 9068,
      "Ġassigned": 9069,
      "Ġreluctant": 9070,
      "esday": 9071,
      "Ġconstruction": 9072,
      "Ġminister": 9073,
      "Ġtesting": 9074,
      "Ġwinding": 9075,
      "Ġkneeling": 9076,
      "Ġillusion": 9077,
      "Ġdominic": 9078,
      "Ġbrun": 9079,
      "inkle": 9080,
      "anyone": 9081,
      "Ġdoubts": 9082,
      "Ġrelent": 9083,
      "indeed": 9084,
      "Ġtwitch": 9085,
      "Ġoldest": 9086,
      "Ġcasey": 9087,
      "Ġofficially": 9088,
      "Ġcloses": 9089,
      "Ġscanning": 9090,
      "filled": 9091,
      "iable": 9092,
      "rr": 9093,
      "Ġcells": 9094,
      "Ġsparks": 9095,
      "Ġcircling": 9096,
      "Ġemplo": 9097,
      "Ġtuesday": 9098,
      "ishes": 9099,
      "glass": 9100,
      "Ġmerry": 9101,
      "aith": 9102,
      "Ġunbelie": 9103,
      "Ġoblivious": 9104,
      "Ġfilthy": 9105,
      "oid": 9106,
      "Ġrapid": 9107,
      "Ġkatherine": 9108,
      "fy": 9109,
      "Ġruff": 9110,
      "Ġbou": 9111,
      "Ġbiz": 9112,
      "Ġgreek": 9113,
      "Ġhelpful": 9114,
      "Ġheavens": 9115,
      "Ġandy": 9116,
      "Ġblessed": 9117,
      "Ġpauses": 9118,
      "Ġhatch": 9119,
      "Ġgriffin": 9120,
      "Ġtowns": 9121,
      "pulling": 9122,
      "Ġropes": 9123,
      "Ġpregnancy": 9124,
      "reaching": 9125,
      "dean": 9126,
      "Ġmotel": 9127,
      "Ġfreeze": 9128,
      "Ġspells": 9129,
      "mount": 9130,
      "Ġbor": 9131,
      "Ġshaken": 9132,
      "Ġowners": 9133,
      "Ġdata": 9134,
      "seriously": 9135,
      "Ġreligious": 9136,
      "bad": 9137,
      "Ġgobl": 9138,
      "Ġsweating": 9139,
      "Ġflickering": 9140,
      "Ġpursed": 9141,
      "agues": 9142,
      "Ġtransform": 9143,
      "Ġfans": 9144,
      "Ġhandled": 9145,
      "Ġstarving": 9146,
      "ilah": 9147,
      "Ġclerk": 9148,
      "Ġwednesday": 9149,
      "Ġcatches": 9150,
      "Ġgrandpa": 9151,
      "Ġpacking": 9152,
      "Ġbella": 9153,
      "Ġgeorg": 9154,
      "Ġproudly": 9155,
      "phew": 9156,
      "Ġsurged": 9157,
      "exc": 9158,
      "vest": 9159,
      "Ġitem": 9160,
      "Ġmant": 9161,
      "joy": 9162,
      "Ġresistance": 9163,
      "path": 9164,
      "Ġdownward": 9165,
      "Ġdivine": 9166,
      "Ġburns": 9167,
      "Ġcameron": 9168,
      "Ġstrings": 9169,
      "Ġpudd": 9170,
      "Ġruby": 9171,
      "thus": 9172,
      "Ġlevels": 9173,
      "oken": 9174,
      "piece": 9175,
      "unching": 9176,
      "fly": 9177,
      "Ġhoo": 9178,
      "Ġscalp": 9179,
      "iso": 9180,
      "Ġkaren": 9181,
      "foll": 9182,
      "Ġunp": 9183,
      "Ġryder": 9184,
      "Ġschedul": 9185,
      "Ġrecru": 9186,
      "Ġawareness": 9187,
      "Ġhasnt": 9188,
      "Ġlogic": 9189,
      "front": 9190,
      "Ġinternal": 9191,
      "Ġstephen": 9192,
      "Ġaspect": 9193,
      "Ġvolunte": 9194,
[...]
